/**
  ******************************************************************************
  * @file    network_data_params.c
  * @author  AST Embedded Analytics Research Platform
  * @date    2026-06-27T20:39:10+0200
  * @brief   AI Tool Automatic Code Generator for Embedded NN computing
  ******************************************************************************
  * Copyright (c) 2026 STMicroelectronics.
  * All rights reserved.
  *
  * This software is licensed under terms that can be found in the LICENSE file
  * in the root directory of this software component.
  * If no LICENSE file comes with this software, it is provided AS-IS.
  ******************************************************************************
  */

#include "network_data_params.h"


/**  Activations Section  ****************************************************/
ai_handle g_network_activations_table[1 + 2] = {
  AI_HANDLE_PTR(AI_MAGIC_MARKER),
  AI_HANDLE_PTR(NULL),
  AI_HANDLE_PTR(AI_MAGIC_MARKER),
};




/**  Weights Section  ********************************************************/
AI_ALIGNED(32)
const ai_u64 s_network_weights_array_u64[27481] = {
  0xf7b381a562891066U, 0x1309c55f23c564daU, 0xd70c5a0cab530330U, 0xe997b9202001c709U,
  0x37066fb82ebb1009U, 0x1bec0e13a3815229U, 0x92cb53fa1ff8bba4U, 0x26d3810dd8bbe404U,
  0x67409df898e517a0U, 0x146b0c4fdcb2d90dU, 0x5dd98fe8fdd550aU, 0xd3d38134c993ef91U,
  0x8e0f6f8f70c6c963U, 0x1f997fb5a0365fabU, 0xfdd2786259ae7147U, 0x53e6a93472636376U,
  0x36a2cdebd6f0fb6fU, 0x5b56a4edb4b15df8U, 0x1bcb88eb5a8b8c28U, 0xffcd7fef9ac0d2a8U,
  0x126ab730b723cafU, 0xac00605f0525d42fU, 0xbb534b0f0fc752adU, 0xca3db4c3813e1084U,
  0x54bc5e3e61c72978U, 0x7f5aa6b4d231bae6U, 0xbff12ba0b070fb5cU, 0x7310000066eU,
  0x2c0200001cdaU, 0x171dffffdb93U, 0xfffff22cfffff85bU, 0xa28995b3847d37eU,
  0x81f72338f797bf9eU, 0x6b1878711281334eU, 0x4ac0a23a3ef2d23U, 0xdd9ba5918195507fU,
  0xbc907f5e580658cdU, 0x4453087f4c4bbcb9U, 0xea99b867c2257f1dU, 0xe7fb76dc51b221bU,
  0xfffff460fffff378U, 0x672000008b9U, 0x220ffffd872U, 0x2f3000007cdU,
  0xdb81449f49811061U, 0x9a663a9b7f2422faU, 0xe96bc1998178dce8U, 0x7fcd9b1cdd43f9aeU,
  0x2f7e0b7fba44e8e2U, 0x3581500223287f57U, 0xa2eaf758cfc39481U, 0xd5c281a997bcb5eaU,
  0x9841aad33b1a9581U, 0xeafc08818a7e709cU, 0x3297a8a74b816fd2U, 0x6be6e17f1d8c1233U,
  0x2fd4f1f67f3e79c1U, 0xeae6abf3f5efaf7fU, 0x7f93e760e3ff7e31U, 0x4e739a7fc56946abU,
  0xfffff893000007c8U, 0x34f00000969U, 0xfffff02ffffff0fdU, 0x203c00001571U,
  0x7ac000011bbU, 0xfffff68700000c4dU, 0x59cfffff476U, 0xfffff1d9fffff1b7U,
  0x66563b5d39eb196cU, 0x9e14e9d63ddd66b1U, 0x6572f712d97308bdU, 0xdf420a6e85760b86U,
  0x276ce6a47c6faa96U, 0x95997f1b3a24a50cU, 0xa1def79afc7b23eU, 0xb235537f387f7f12U,
  0x30b738d356d72ae7U, 0x3e8125327e9b6c99U, 0xf6ec7f817faad436U, 0x4629d7e97fedfc81U,
  0x8113e2cb3a9b35fcU, 0x81d65d5e2265a8c7U, 0x617f749f5fa1c381U, 0xa1edda38e6ea8e46U,
  0x2c9de3dabf7f7f78U, 0xfdca6bbdddcc59c7U, 0x1dcfffffe2bU, 0xffffeb1f000001cbU,
  0xfffff5b800000d13U, 0xffffefb0ffffeef5U, 0xfffff7f300001941U, 0xffffee3cfffff6d8U,
  0xffffefceffffefcaU, 0x16e4000008adU, 0x50f5c8d8204ff67fU, 0x71e6cd484ff2720eU,
  0x9efa0426e24913a9U, 0x81eb3fb81f32c17fU, 0x4a4c7f8ccbe3784dU, 0xbd2fbfbdccae7e8dU,
  0x23f8447eb0280181U, 0x52bb9403747aed0eU, 0xb02f0cb277f2c27U, 0x1302504ae94d4bfcU,
  0x54813d0ae10a2190U, 0xd73d4ceb5d793652U, 0x5b9b0781c7cc9fcaU, 0x9c8f75dd1efe3143U,
  0xdbab9be4438e6d81U, 0x26bc16f3fdb9418U, 0xc94d10eccd249a52U, 0xd1a93258fc7fc842U,
  0xe1433ddfb93d0094U, 0x311d1da5e5bb9b7fU, 0x70c810f47daac3bU, 0x2a959ae0ca1e1b41U,
  0xdcf849aae328522eU, 0x9028370ef77fe0f4U, 0xc4412e488c918acbU, 0xb25e251f9e4be87fU,
  0x4893c2bde28f7f2aU, 0x904bb2e3a950011fU, 0xd36a29f31ba409d3U, 0xa1967f8583bd0b1dU,
  0x97272b783e81a2e5U, 0x3e728239efb59ff5U, 0xe787d398cd07c936U, 0x701d00fc497f4590U,
  0x1f551db87494797U, 0xcccbe81610cd6b9U, 0x9e9eb2cfb38cefe5U, 0xf0e77f21e0eab1f6U,
  0xf51ad032358e7e48U, 0xef0c4114a77f4e9dU, 0x42a5a82f142325e2U, 0x9081001f047119aaU,
  0xfad8096e28153126U, 0xc7f2b97f01715141U, 0xd6b9f7dac71181fbU, 0xcd7dc5c3a67d6171U,
  0xebfc7f98e468d5a2U, 0xdb8ef4361bee5003U, 0x53d6ed6a31b8edbdU, 0x78d31281003c081U,
  0xa268d242dd63ace3U, 0x701f093b73812b2fU, 0x218100c0ce58a1f3U, 0x8fe9cb8b5a773b88U,
  0x67aae3cd36931602U, 0x652c0866bd73dc81U, 0x46a468bfa4e0da19U, 0x178e3c81abd494f6U,
  0x3117c8e28f2f267fU, 0x1d39701848e9c51eU, 0x476a8158c1a8a3eeU, 0x2403fcfd304fbb14U,
  0xe6aaed95251ddbd6U, 0x81a1f2153e420f95U, 0x2e5ffffe69dU, 0xfffff47a00000515U,
  0xffffec11ffffe68eU, 0xbe700000e81U, 0x286fffff8a3U, 0xfffffad100000761U,
  0xdbe0000044aU, 0xb550000107eU, 0x11ac000005c1U, 0xfffff48000001f3dU,
  0xffffe7250000071bU, 0x3b10000070fU, 0xfffff0bb000008f5U, 0x480000175eU,
  0xfffff07700001c3eU, 0x1951fffffc73U, 0x7f76d97f1cd59a28U, 0xbb0981907ce866cbU,
  0x7ca20a0a2479f86eU, 0xc0af57767b297f06U, 0x19ba9b0a037f3252U, 0x3e492e1df87ff2c6U,
  0x31fd9c4d304e17fU, 0x59957175cf6c475dU, 0x50dd41f2a310a447U, 0xa0400e61fa9f3fd6U,
  0x13b1f27fd12232b3U, 0x7fb32043811d7020U, 0x18812e42300feddcU, 0x3d86b48181c8f3c9U,
  0x7fb0ccac7f817273U, 0x94811d7f67b5a982U, 0xd5177f05e9a7817fU, 0x208cd41645d90581U,
  0x1781429828cd3b34U, 0xd9f833a7b88135d9U, 0x46472b08a95f3bfcU, 0x2c01e69dadb3927U,
  0x936f3eada5c077d5U, 0x472cdc2239d84238U, 0x605a6dca7f651036U, 0xcd819ac53b550f46U,
  0xea24ad707794590eU, 0x9ef9cf3d8bbb037fU, 0xae87c209c2cbc6caU, 0x4d39cc1e5e3c6d02U,
  0x9f037f0f091e8131U, 0xcd907ff519e93136U, 0xd38160e5376519beU, 0x81c62c01841b8128U,
  0x14453191b19df2a8U, 0xfc72108ca2d1eccU, 0xd8dfffff605U, 0x125fffff211U,
  0xfffff0cefffff8a9U, 0xfffff36e000007b1U, 0xfffff6fb00000962U, 0xfffffd40fffffe00U,
  0xe770000005dU, 0x5fa00000ec4U, 0xfffff0e7fffff232U, 0xfffffcc900000ddcU,
  0xfffffa3100000b27U, 0xfffffa960000072cU, 0xffffe847fffff8efU, 0x59800000706U,
  0xffffebd5ffffe755U, 0x49c000018a9U, 0xa4ac50f69c66495fU, 0xafd9626f5c9b6aaU,
  0x17ff7f6c86cdc5cbU, 0x24e91fdcf7a02218U, 0xc171d3664ff738faU, 0x4f9341f481c296e3U,
  0xd0c70f16e158ce65U, 0x53f075f32da5c7b1U, 0x554e50e71d05cb6aU, 0xac454a35c6b3494U,
  0x49b64ab9a0ab4e63U, 0xb6b03a53ea310c7fU, 0x1bb3f8565a2d5cd2U, 0xe132692f1856ef1dU,
  0x7f1dc6cd51eae146U, 0xee4fa34fe8af40e7U, 0xe2b4ae380662f63dU, 0x8bd8464954c081e2U,
  0x633bce3970d48db2U, 0xdaed9dbadafbb967U, 0x9e6ab30f6ba96c7fU, 0xffb23fe404be5389U,
  0x178c592c35cac734U, 0x2faeb4041e46cb25U, 0x93ac9b59aed70678U, 0x1bf5e2461ec9333aU,
  0xcd326bc1be453485U, 0x2dc2a8194e02e54U, 0xee79e11a55d62269U, 0xc6a56b1d0795a2a6U,
  0x2a7d812828ee00fU, 0x7fc0159e73c5ad90U, 0xd105099b3e7f2de3U, 0xf759fe5f0bacb70fU,
  0xa0411fe4799ee6e7U, 0x32943f66276ac5f6U, 0x4292d5b9aa487febU, 0x45e638ddd77eb137U,
  0x899873eef076d976U, 0x34a932608e76d3bU, 0xa10e5ed34299b030U, 0x2181acc20f4bdb2fU,
  0x7420a79b060eab70U, 0xe6cc291bba68b3e6U, 0xf1b1f4a421bfbe58U, 0xe95645f2dacf06d4U,
  0x384f47edc5bdbd25U, 0x54ef81f3bff99b34U, 0x2f8165dc6d0bd71aU, 0xc6dbe6ce93f3d1edU,
  0xf5f0ac6a31ab415dU, 0xea053e059a67058U, 0x33c9357f103101c7U, 0x41b3a2db1ffa1cc4U,
  0xa9aab42d080c4774U, 0x3c20f42c0d24dfc5U, 0x4ac4b697b9c63213U, 0xe7cb13ecdeef6ca8U,
  0x491ffe4944c03bd2U, 0xfd25187ff4a2efc1U, 0xb7b43df770a44fb5U, 0xd1b100cded49e7a9U,
  0xce6952e65f2ce3b7U, 0xebe5bd8198e2f3e8U, 0x294e72dd646b0c17U, 0x25fa57046e5d9e67U,
  0xaf55f2c8815e98beU, 0xe187f0c95f4bce08U, 0x54ba2d6ce97fd9d5U, 0x7acf940e1d21452U,
  0x2629ecd334482bb7U, 0x32c5f693abe73b1aU, 0xef641e9d47abc06aU, 0x74245e6df58e16ceU,
  0x2fb843d68124e016U, 0xd450a56a413b302fU, 0x98b4c9ce02449d20U, 0xc09c431246ee81d1U,
  0xb49bab6f2ece88b8U, 0xf70f303bea754c33U, 0xfa41bd389cad6ee1U, 0xd9f1e0636a1c11f3U,
  0x5e177fec6ba4bb43U, 0xab3f3fc1d6d542ceU, 0x84d7b8e26c3ca0faU, 0xb2355d89188fc18fU,
  0xceec46c55d5f6a21U, 0x33b1617f510fae06U, 0xcdf7e8ce647f884eU, 0xd052d3193e7f413U,
  0x9e1f7427fc4c504cU, 0x726de7a365ddcc56U, 0xbd3cc6c09d6cf21dU, 0x7f58fb5143e4f024U,
  0x8b38ac61d8118d70U, 0xdfe003b854ea3ae5U, 0x75cc087f5a0ce66cU, 0x36f9b7940dcb23dbU,
  0xd5c7be4021106a74U, 0xe123d1f7e02ab414U, 0x391b17abaec45f8U, 0x2a2699720ee29843U,
  0xa6ae790806a74d9aU, 0x3dd1f9907f660b8dU, 0x941e662a28af2f81U, 0x2089a144d14006c9U,
  0xbe36055ad353bfd3U, 0x76447c10ab263351U, 0x42a44d1c2ccfef1bU, 0x3ae0b84e184ac0c2U,
  0xa36ffa88c5ca2b8bU, 0x17f0d4124da14e4U, 0x1b022c6baed4a291U, 0x2cc85836cf6ced7fU,
  0x7ca4050a9040297U, 0xb8ffe225049ecffbU, 0x196c88fc85097f55U, 0x2c71163dcfb2260eU,
  0x49c791555c753063U, 0x2db29d65ca2321aaU, 0xa2064349ed311afcU, 0x79f7f31d4f14dc95U,
  0x257f10f263eb257dU, 0x674f400d92d6a71U, 0xc8d237aef121e59cU, 0x255340baea3357f6U,
  0x59429c44cb29113fU, 0x7f348f1c253f39e9U, 0x2b200000e68U, 0xffffe147ffffe169U,
  0xffffff95000011adU, 0x1fc100000c16U, 0xffffed6cfffff254U, 0x13f90000172bU,
  0xfffff87dffffff30U, 0x223200000560U, 0xfffffb98ffffe935U, 0x1885ffffe870U,
  0x183fffff8c3U, 0xfffff8fcffffe5abU, 0xd4affffee9dU, 0xfffffe4ffffff6b0U,
  0xffffe33d00000621U, 0xffffeb0fffffd2d9U, 0x7fa07a7f2f7ffdf0U, 0xdd45710054410d0bU,
  0xb10257fe814c98f9U, 0x81da39d36cd6bf49U, 0x5f7ffc3b7fcf11feU, 0x43566caa5b23a7e2U,
  0x7f3bf898b6d56dd6U, 0xb8e4a7b78331f07fU, 0xf1c2fed226018b28U, 0xca47adf981633427U,
  0x352181caba451b4aU, 0xb317d52fb57fefd6U, 0x72f07f01495e33e9U, 0xf6e539c42f6eea5cU,
  0x9817207f3a8862feU, 0xa42b61635f4b7f7eU, 0x33e1523b1ff45f72U, 0x8138ace4ec54f17fU,
  0xe3da1bb41d7f02e4U, 0x1607360df3f04779U, 0x252edec580c157fU, 0xdd7fba67ff5a815aU,
  0x527fe590df5e2639U, 0x547f7f9ba06705dbU, 0x3152ded7d24d7f31U, 0xc2f6e89539530ccU,
  0x6cef3e459c182e7fU, 0x9cfdc87f810ca7c7U, 0xce3813edc0571494U, 0x3d5b7f94df81475fU,
  0x7dbe5ad0384bede3U, 0x3950f075b3a8fe4eU, 0xf67042ebd09101bfU, 0xebe41d81db442dadU,
  0x3306d29944207f1bU, 0xcf198a89b3c83bb6U, 0xfffff2effffff9acU, 0xfffff5b3fffff405U,
  0xffffed97fffffaeeU, 0xffffe99dfffff3b9U, 0x1a7fffff010U, 0xfffffab6ffffef3dU,
  0xfffff235000015aaU, 0x776ffffe41bU, 0xffffecd0fffff7beU, 0xa5fffffeebeU,
  0xfffffa3d00000eacU, 0xfffff045fffff9baU, 0xfffffb5afffff016U, 0x1501fffff607U,
  0xfffffd38fffffbc0U, 0x12f9fffff4b2U, 0x68325d7f540ec420U, 0xef91f9b3b1194e5fU,
  0x63dc40a2eb4f530cU, 0x580a4e276a0e302eU, 0x7f5ddcb539cbfdd3U, 0xc8396a2a9af3c437U,
  0xe0a54e2050d43fddU, 0xafda268e0db5fa73U, 0x70f674b331c2034cU, 0xa123811252af69d6U,
  0x73272ef1f4e55e1cU, 0x8cc788931ebd37c1U, 0x2315fa202e19404eU, 0x73ee694d61db564eU,
  0xa9107fae6f2d09a3U, 0x9afe18be025b3fa2U, 0xcc902994e999206aU, 0x401fcc6ac67f24bfU,
  0xdf900fee2970d8d2U, 0x5dff77f87101c8U, 0xe9d98f99ae60a5ecU, 0xccb00a4f0b2209d6U,
  0xc93ff0111c2b515aU, 0xb18e087fea2dd7c7U, 0x33e1b2e13481b22aU, 0x4b409f2b4d33ed0U,
  0x5d0eb1da6c97d6b7U, 0x189205eebd31cc5bU, 0x7f46ce1226a5963bU, 0xa6dc0b5dabd8534cU,
  0x3b163eb5a08c6bdfU, 0x9e1b0cf9d1434361U, 0x70d3ca5fe1083090U, 0xaffbd92c714305afU,
  0x2536baeec5afbc39U, 0x625497fb5bdcb31U, 0x7f961a561ed8d38eU, 0x5e128833358ebefeU,
  0xc5e6d8ec9daceeebU, 0xe5e4b316140940a2U, 0x22ae2bf93deec4e0U, 0x98cbda81111e1320U,
  0x754f4c1921d2e35aU, 0x194fe3a78fb4c3f7U, 0x2b8f49c0c436d94aU, 0x4b5631ab8101b20aU,
  0x8a9856ecd3519ec0U, 0xfdadc762d243f7d8U, 0x255511b6605a2ab6U, 0x3c2ab7727f3f4653U,
  0x9248ca0cdee296aU, 0x63deed3a6eca594U, 0x2cc4d929dee9480eU, 0x147f42b7b91517fcU,
  0xfbec4267cad3c510U, 0x1a121637e939ee0fU, 0x28f141e77f2d29f6U, 0xd9c6fc121708ca21U,
  0x4dd0ee1c1246f6U, 0xcda1e418eae5df32U, 0xe10a2f1e62f1b003U, 0x463c423994d934aU,
  0xf8160362c1131d1eU, 0x6686649625222a7fU, 0x2e81ecbe5324cf35U, 0xc2d1543a1444b5a9U,
  0x26519f2c64a2c81eU, 0x4ea1d590448b9e7fU, 0x395a3fa1d237cc22U, 0x350545e2dfdaf9f9U,
  0xdebe32b460f0eb40U, 0x593c7f3cd415c898U, 0x8194f723b7f35a63U, 0x897b3088214512f6U,
  0x5d0111da665fed65U, 0x473a6fbe4049741eU, 0x7bbb139cb714647U, 0x40f6b4ee54fe2ef4U,
  0xe7f20195156393cU, 0xa8b7c30b1b3af2d3U, 0x22a12cf13f4233U, 0x4c16f15fa8cb9e6dU,
  0x231164244e591d0bU, 0xcc814c3d1a4404b0U, 0x7f5661e32f841c4U, 0xd6f13015b5ad6739U,
  0x46a01c3fc999bd2dU, 0x6809ca7f8b4d0e2cU, 0xbb1f725acf93d4b3U, 0xf3aa810b9ca11c0dU,
  0x519fdfed568fc9f3U, 0xe1b5d736b6ff9a4bU, 0x4ff0643f780414b5U, 0xc4e89a497f22c70aU,
  0xdd52d690683a50efU, 0xfdf40a2ad1a8f4dfU, 0x3dbf65e24e8aacfaU, 0x81d15bb2562df3d3U,
  0xd7d6e35eeab3e1ecU, 0x2351d9be66df5706U, 0x649ad26f650881eeU, 0x94981ceedbc20c74U,
  0xbfdde1a58aa62267U, 0x3a789f8bb4a2c573U, 0xb2211e507ff9550cU, 0x3c8ba70422d9eda6U,
  0x428a612d5c45934U, 0xd11f5215fb35c06aU, 0x3100511ed16f267fU, 0x2b92146952c4f6e8U,
  0xd9b6c1b347fdb3d2U, 0x646ab1b10c1e6a5cU, 0xec55f6d436e8f794U, 0x6bf26bea630040a8U,
  0xa37bd6c57f612733U, 0xbf664ce494dea5f6U, 0xd81addd70b7f2e05U, 0x51ae5e3e2cb3b235U,
  0xa625aa5c57e60607U, 0xc9f56d4849aba5e8U, 0xdcc1b59b9c6ae196U, 0xf87fe6e79370c857U,
  0xfa30d2d0230f930bU, 0x22f9f230cbc5a7d1U, 0xbe5b0c6d11726328U, 0xa4b61696af138144U,
  0xfe66e94ae7fea0ecU, 0xfc9f34a03106395aU, 0x776bccdf5b36efb3U, 0xd4e8813941bf2202U,
  0x3c10d12201a8b6bcU, 0xcdc95d564c09ad67U, 0x1ec55f38f8aac2c0U, 0xb69407f0d1060d16U,
  0x257e152ea8390cc4U, 0x3f7f93cc37f0b999U, 0xd1a658a2246f06c5U, 0x771d95cdb97ac6f6U,
  0xf3b765287637b6f2U, 0x82cef9b257ac507fU, 0x70e041be17b964c9U, 0xe9eb45d4bae3d5ffU,
  0x58ad23ec07ad7ff9U, 0xfa1f62096b274646U, 0x85299437a781ac71U, 0x39e5ef2ac9910472U,
  0x4faefedcd1edc206U, 0x89aa28cc82cabeabU, 0x85c1bba734191ca8U, 0xd0dfd83cd881fda0U,
  0xc3ce8115216d184fU, 0x4294aff7b2a8a3b8U, 0x36a3fd7f30be9727U, 0x1c1366fe611debf9U,
  0x92a08e40c9e9c9cbU, 0xf2253773ab33bb88U, 0x12d382ddfc7dcaaaU, 0x5c963a847f19494cU,
  0x900633fefa98e0d1U, 0x249f549753aec097U, 0x4cf6c04cf4e0bf8U, 0x1427fbc603f0a708U,
  0x4f7f3fe14867900dU, 0xa931b8c142e4bb71U, 0xf6339ada1f7150fU, 0x566d2e95f4324c7eU,
  0x74f95beee93f337fU, 0xbae03558f8a2a04bU, 0x4c8be206143a8148U, 0x8a59cd336cfffeb0U,
  0xe5647731ef492951U, 0x20fadca43737c06aU, 0xf8f5bca902ac3b32U, 0xe68732eab82cb07fU,
  0x2646d3d92d08ccdeU, 0xd4e0e1ebaffa57b3U, 0xdfc9b4b6d198343dU, 0xa80038f264b1bb81U,
  0x17c8dc9ff3294ec5U, 0xa5ac189e2fda740U, 0x732b3f9218fcf781U, 0xea2be0a5cc12eabfU,
  0xb54f2c79329702f6U, 0xafad9e4a350168d9U, 0x69ec46aa162cddbbU, 0xf8d12d57f409ef6fU,
  0x11dcfa31de3ffbfeU, 0x11c87a644dac387fU, 0x9b0c9c1e59b86481U, 0x1e27613c5c34031cU,
  0x599315b62d9ca9d1U, 0xdb1e17c1f65189efU, 0x33aefdf3eabb4605U, 0xa812fa4260504cf8U,
  0xfe7fe813cfac4437U, 0x5e2edec611c3fcafU, 0x72504b441628c158U, 0xfef7f7be38cf2456U,
  0x5ae75a0e84f3a5bbU, 0xd4a50bcc5cb1812bU, 0x811727b211d6ca33U, 0x2cb25b19bb7f2eccU,
  0x695233cfa5525853U, 0xdb19f76086dfbb53U, 0x2a320a6a7f3be497U, 0x40a3aa2774c55f3U,
  0xe1bff0146f106e25U, 0x43f60265d8026bdaU, 0x5c7f5f116306679cU, 0x324a2e56d3ef6d53U,
  0xf82ec6cbd8494ce8U, 0x293dedefeec6d0ffU, 0x167fb0762e4bec13U, 0x984d0d95f3a25c4fU,
  0x8500589aba61c7ebU, 0xd71c489dade7ea98U, 0xbabfe0c6a2f1e86cU, 0x2612786aa913895U,
  0x6e600bd46707507fU, 0x3852a1d71119ac17U, 0x131fa6df6c874dbaU, 0xf03ee12f5672e376U,
  0x4f7e88561a988781U, 0x5c9bce5b7fbec0f9U, 0xf5e9f14fbf0ff5b4U, 0xc9f12ebd7fa26959U,
  0x20a9097b40c9473dU, 0xa11ec3132a22b53aU, 0xed0adea6b1c2d37bU, 0xe6e4e61190d48f6eU,
  0x2fd75469362fc3b4U, 0xba7f1c9e3cd4a9e1U, 0x910cdf81032e6622U, 0x36c7ff2295583260U,
  0x219012d85e3b42dcU, 0x43ac095b355158daU, 0x4b9b073f9bb840d1U, 0xb1c8f05cfa81da4aU,
  0xb2c441473e53f49bU, 0xb4e1b4e74ba70a0dU, 0x5192b799ecae047fU, 0x92fee7b2f0f5f366U,
  0xe9d41b9ce05c32feU, 0x3d529802eaa1f634U, 0x5b437466754381d3U, 0x6d3b948ada92784cU,
  0xa09fd78bb2937a76U, 0xe9f64378b1c368f4U, 0x6ffa65c4158123d5U, 0xd4a02ff81faf8a96U,
  0x4e9fe7aa077b4711U, 0x6c2fe65093e377abU, 0xec2fe06cbd21e8a0U, 0x22e94f4098ce1867U,
  0x9bc4ac124fdee2e0U, 0x3bd0f47f0c2adc2aU, 0xfffffd43ffffd325U, 0xffffd726000002b3U,
  0xd4cfffff838U, 0xfffffa6800001c69U, 0x2086fffffef7U, 0x1b4800000c41U,
  0xfffff515ffffee56U, 0xffffe8d6fffffbf5U, 0xfffff03000000beeU, 0xffffe4d8ffffdc15U,
  0xfffff690ffffe4b3U, 0xfffff0aa000033aaU, 0x1db000000a9eU, 0xffffebf2fffff87fU,
  0xfffff304ffffeeebU, 0xfffffe0300001a0eU, 0xc6ffffff7beU, 0xffffeb2000000011U,
  0x39420000370dU, 0x15d800000c39U, 0xffffda5dfffff31dU, 0x17f9ffffe73fU,
  0x93c000026e4U, 0x915ffffe154U, 0xfffffb0afffff3b8U, 0xffffd1adfffff7afU,
  0xd2bffffd5e2U, 0xfffff5c2000002fbU, 0x151dfffff576U, 0x161cffffed13U,
  0xfffff7a700001435U, 0xfffffe7d00000a68U, 0x7f1ceac5d4f107f0U, 0x14534eca6b54ccd5U,
  0x953bb465d7d5810bU, 0xa194347f153a3b2dU, 0x3cfb95d9fde1cafbU, 0xf8f1c0817fdeae7fU,
  0x9c5d27bed41a7b27U, 0xc81f1ebb0881d33dU, 0x12eeb3818cf8f208U, 0x817f52f3811d05cdU,
  0xc818034150845eb2U, 0xa4ad62f415403381U, 0xd21f2b403d7f8d07U, 0x46dd35f6c8ac7fd9U,
  0xbaa830befb81249cU, 0x817099213030cfe7U, 0xef23dbbd81e1c619U, 0x2a5c7fd071b581eaU,
  0x7ff82a26b537d9b2U, 0xc817fd31776a7caU, 0x2dfe2c151bb0817fU, 0xa6be2c28638162f8U,
  0x8fd93181310dac87U, 0x5372567f9a8d1489U, 0x51d69b764d097f33U, 0xd7d3c7e57706b777U,
  0xc6f0307fe22ccb38U, 0x6f4dce97ffcb692U, 0x18ef337f8b5533c6U, 0xdb8fddd552bedfe9U,
  0x50fbf1b87f35ffa5U, 0xa5f1b72ac7b7b26dU, 0xff22328ab97fdf7fU, 0x1fb7dd22401c25d7U,
  0x330c0b07f6a59630U, 0x81d9db4c4f3ffaaaU, 0xb3527801123bbf10U, 0xef3be83d1a128acaU,
  0x26811419c9c3d453U, 0x3b3e7fe6226281ecU, 0xd6817f10053ddc1fU, 0x70c93022050509c8U,
  0x474bd7975bb80481U, 0x56ea9ed4066f6100U, 0x97dd00b651841d9fU, 0xc37f81eb86f9752bU,
  0xc8abe7f607c8229aU, 0xc48170ace2bf46a0U, 0xea3b4d5ab213ce70U, 0x515056d1687f4351U,
  0xf3fe7f6e7f81418fU, 0x45e6bff472a09fc3U, 0xff7ff3af8103c915U, 0x2cdb00dd32d03449U,
  0xb19cbd9be54210e1U, 0x13b211322d21851U, 0x390b61c288ca0a57U, 0xb367de8178f64fb1U,
  0x684bc32131c88529U, 0xc0c83f01a87f1dedU, 0xe3f87f11092dfe08U, 0x8169c21e8bcbf01fU,
  0x7fce7f0037f82e6bU, 0x3db0f41d7f92da28U, 0xb185ddfb7fbfe45U, 0xd6df2d1d7cb40f81U,
  0x217f015ed6a7641cU, 0x4389c9eb2de67f5dU, 0x7f08175a88e7332dU, 0x3de861aacfbeaed6U,
  0x4fcdfbf1ecc17f81U, 0x71d6b7ec4abec081U, 0x18dffffea94U, 0x1beafffffb2bU,
  0xfffff80f00000a6dU, 0xfffff5e90000019fU, 0x1780000083bU, 0xffffe44efffff88fU,
  0xffffebdd00000b0dU, 0x11fffff712U, 0x96600000859U, 0xfffff94900001e0aU,
  0xfffffda9ffffe99aU, 0xfffffc89ffffedb4U, 0xfffffa0d00000effU, 0xfffff06efffff132U,
  0xfffffda6fffffe08U, 0x89d000021a4U, 0xd06fffffe64U, 0x7bffffffdc5U,
  0xfffff188fffff9faU, 0x15ffffff6b0U, 0xfffffda8fffffc0fU, 0xfffffebe00001781U,
  0x5230000059eU, 0x7a8fffffe6dU, 0xfffff69c00000b08U, 0xfffffa4700000910U,
  0xfffff72900001146U, 0x29b000011adU, 0xc84000002efU, 0xfffff9860000174cU,
  0xfffff992fffffd9aU, 0xffffffa1fffffa73U, 0x34d254eb0605940U, 0x20db28acc243e5c7U,
  0xfb5127fd4524424eU, 0x371551147fedd2f2U, 0xd5fbc6f3385b5006U, 0xfdd5f2e5f7c1ffd1U,
  0xea465be9d1e9180fU, 0xbb05cdd3c855d5cdU, 0xcc3b3b0637316850U, 0x22b11600cd09d099U,
  0x6fca34355ec9d281U, 0xe7d55dbfb4696fa9U, 0x1cc02b692fb44017U, 0x27645d0794f029baU,
  0xdb30c3a2d10db8b2U, 0xebbe63f26a1b62e3U, 0x294f92d507ac3a11U, 0x158b0f08f5dea337U,
  0xa6cec6d02ec2064cU, 0x1d81464e62d035f2U, 0x14704ee716c43eafU, 0xe9f2c1c013f4eea4U,
  0x421a4fd4bc1499cbU, 0x5cd66b214ccab9fbU, 0xe401f01cc2d9be44U, 0xdc62a8b7a4b6f9f8U,
  0x1f1dcc812d2518f0U, 0xe5492b76ec27464fU, 0x28e9dc3be8010326U, 0xf6efc84cc9b6beafU,
  0x1018a8f7781e012dU, 0xd10023cb051248f4U, 0x20caf6dccd273260U, 0xb5110edae716af20U,
  0xc22e3bdd0d374633U, 0xc0ea2614f45cbcdcU, 0x63076e53e814244U, 0x11edf707be4c2b54U,
  0x57b402375bc603ddU, 0x56c7f524fc126e43U, 0xf7810e7117474859U, 0x4771d6f3000b96a8U,
  0x236717285def1b03U, 0x2bfbfda87dd1dc14U, 0xd20a54e42168089cU, 0xa0c3c6b9a3aac273U,
  0xe61fb925b55f2ec6U, 0x17c1891ccb0dde36U, 0xaabfb89800fb5044U, 0x4b034c2df6d66b32U,
  0x343700fcea4aea16U, 0xb3480cbf02ca1d1cU, 0x1d44f0f7a9325522U, 0xe8b52e509711a449U,
  0xde70fddf7f35edbcU, 0x4192f90e5fef1656U, 0x9a9e050e77e5cdb6U, 0x12e0d9a13c61a1afU,
  0x81adafc18c273eb3U, 0xeb8d32f0b842ec03U, 0xfb517b24c2a5b4ceU, 0xb0c54a46d4e50ab8U,
  0xccb5c061c35896a2U, 0xa183a134fdc30154U, 0x45c866426b02f15fU, 0x9bbccb425a29cd96U,
  0xe960e0300f4ff2fbU, 0x51565e15a743119cU, 0xce50b93b601595f7U, 0x27b3227f43120af6U,
  0xff0b0db622681e9aU, 0xa9ac5f5b5198ee1U, 0xab38a3b991d9f2bcU, 0x9e269e3ce468e138U,
  0xceaa0b97bba16f8U, 0x1809813a588aa23bU, 0x14fd96c421db6c23U, 0xdc61e4be47d6a71fU,
  0xc3d56cd5701987b0U, 0xc2d2a815d06759efU, 0xc890d516c5c0a897U, 0xb199f00beda16e5U,
  0x7eeb2aa20ade22d7U, 0x6a308590a7d889cfU, 0x22f0b8531b75552U, 0xe143a4194cca38dcU,
  0x50814841cfe8ef6cU, 0x6fce88059dc3c611U, 0xad6524826a741e8aU, 0x331ad75d6744f7b4U,
  0x25913f35e855fbU, 0x9d0f77fa5370aa6U, 0x2a4e05e50a4919cbU, 0xbb07a7869bec3013U,
  0x1a5675efcddf63f6U, 0xbee8b3dae6adfd1aU, 0x6526c231d63e5840U, 0xbaf8b5be9944319fU,
  0xd768a3a3dec7bacdU, 0x2e5963fae54a0a54U, 0xa1d318187510d3fU, 0xcef5a4a6fb4f568U,
  0xe4cc4e47a9df8e46U, 0xe9715040c77cadfdU, 0xe7cf0218cb54d7e5U, 0x3b7f17cab59fc9d6U,
  0xf70fcbea15449bc6U, 0xfbe8302f2079dff7U, 0xc9a5ed2042585b93U, 0xc29002685887f702U,
  0x21f1abd7e87d960aU, 0x85a0ebdf5c43c82bU, 0xd88152d1fe85b021U, 0x53b15eb7725031b6U,
  0xfccbb042b4fab8f7U, 0x8ca6bee3ecda9787U, 0x1a451a54af755e1eU, 0x54375b9dce26c767U,
  0xf39beb40b00711efU, 0x6535810f503b2d7U, 0x97e84c520ade7015U, 0xdba63562fe851d16U,
  0x4c4897ea87bfe13eU, 0xe1357225f35a1bb6U, 0xdca6fe3d7f320775U, 0x6d7051185ad12b5aU,
  0x2137c414e6a400e8U, 0xbbd019bf62063512U, 0x114ad7b7fa48ed9dU, 0xc40792fdad5201e3U,
  0xb829f8e08118c2b8U, 0xe03a09d91d02bdaaU, 0x5b1d3554ecacc9c6U, 0x5701e2e9b012d6d0U,
  0xb7342df0dd19f81aU, 0xaf38563add3d3d20U, 0xdb9eb7d4c0ef23acU, 0xeb22c6b709139da3U,
  0x5e2c8c4e2fadde7U, 0x517f2127acafeaedU, 0x26cfe6a6f72eea37U, 0xf5233ae4e00af4f9U,
  0x9f11fd373cd9b8f4U, 0xb050ffdfa2f53847U, 0x64d137e2c609d438U, 0x2d723edcb3fd1efaU,
  0x2f53f398b4e416f3U, 0x76ea51f358580f0aU, 0x50e815d12968d94fU, 0x58b2459b0926b104U,
  0xf7e6c5477fe416a6U, 0x2a6d9f11a91bdbe3U, 0x82667c6b7ec318dU, 0x47ce333953f3c9dcU,
  0x2cd1af105d63b95eU, 0xb91cd4d2169f1871U, 0x1025d485049504cdU, 0xb6d3c311fb81fd1eU,
  0xbe3d78f9aa25d89U, 0xf798c195f64c6d9eU, 0xb056f32cb13fbdc6U, 0x9fb2b959540238bfU,
  0xf3b89bb057cde336U, 0xa371cfd39cf121b7U, 0x7fcf11de11efd814U, 0x4e35f91959baee40U,
  0xb5d9eba8f266b4ebU, 0x17df0e7927ed94bbU, 0x2918d3bf2a12c5d2U, 0x3d5d2ac90ec101b0U,
  0xc3db35eddf0df0a1U, 0x519ce0fbcd374e27U, 0xe71f01d0530cafe4U, 0x6b46e161e0ddb746U,
  0xb700033d5292da8U, 0xe97f3de5c2171dceU, 0x605dc3e6af7c180dU, 0xf80d81f4c41ecdeaU,
  0x62eac7ecadc3d0f5U, 0xfe2ce133632134c8U, 0x2f9eefaf8a21a1f3U, 0x200fc0e33d2236e8U,
  0x3113d0fc61b73f42U, 0xda2ee0d7225f3408U, 0x77a84a168de4254fU, 0x74f1332815b4a40fU,
  0x5fdd372c45370998U, 0x384eda3a06598edeU, 0x2403dc3bb9a9380eU, 0xb74999497f9ce702U,
  0xb0b9df24a94dd8a3U, 0xd96aff171225d4ecU, 0x28e030c0b630a949U, 0x4ed21bda1112d8a7U,
  0x48109cfa331ab308U, 0xf7b9df7fecb92f1bU, 0x31f20a06fc6d6530U, 0x4e07362551261ffeU,
  0xe4c3e3041956a3e5U, 0xc2e1165f1544c405U, 0x3253ade110f5c921U, 0xd2efe642dc907f0cU,
  0x69b30f0326e33be1U, 0x3a5a22575c47c4a1U, 0xad05c6e10b203106U, 0x87ad2fbeaaa0cc9U,
  0xf5b740b4be2c0cd9U, 0x59b6c5bd2ad9438U, 0x6d2584213be080dU, 0x4a5b3062644f3e0dU,
  0xe2c0ff6dd518e54U, 0x8dc3900cce1cbe7U, 0xfcbab0463ca3b8b4U, 0xfb6c352123064e7fU,
  0xb5c0e836b94a5eeaU, 0x1ee511c7e72df1e5U, 0x9ebad3a5281e010U, 0x1b45e8cb5d9f42bfU,
  0xbaa30ab9e10de7e2U, 0x3aadf106737424c0U, 0x4a238b97feba224cU, 0xa2ed012fa9cc598fU,
  0xa45e1f939f825215U, 0xcd21ed43b55d19deU, 0x2406de18540ce00dU, 0x45c11e7df49f712U,
  0x24fbb6e172421001U, 0x9de06b460eda4c3dU, 0x2fdcbc05d2d8a008U, 0xb128364bcb16fbc3U,
  0xd6e82bf0f29dc99fU, 0x3781c6c3a1369abcU, 0x52e6bb5420f942f7U, 0x897fa8b0b28e74f1U,
  0x340ebdc7dc4d62b3U, 0x157ffcdec26aaaaaU, 0xb4febf5356f750fdU, 0xf45cc00cc0dfc0c8U,
  0xe82cf6245c003f96U, 0xb3adc868e520bd45U, 0xd1faa65d8bee12c3U, 0x6609a9c00fd04d35U,
  0x11b33af96b0a984dU, 0xc37fc4fbc5cc35f3U, 0xe8b6e3ee66ed29fcU, 0x3c5e01ec341f2bf7U,
  0xfea0bce14f58ad8dU, 0xb4e40a6c2a16730dU, 0xe3c7fde4def36844U, 0xe5928bc14ab2046U,
  0xf122421f3c31abe1U, 0x86d8aa427fd822aaU, 0x3d4def54b0c797a5U, 0xdabc34cce3db4830U,
  0xf5202efe57864db8U, 0xff2550b0b5fc570U, 0x9dbf1051fb86e951U, 0x2af096b6fb58811bU,
  0x9fbc4af1b319c855U, 0xbcdf654a3f20cdbeU, 0x323f0deea9a1c95U, 0x5e3b069def4ed517U,
  0x26cee45610394e0cU, 0x3b56fc9919511df9U, 0x682d4a6614e7a93fU, 0xb117dbebbce77f43U,
  0xed8bcff6b4ea95c0U, 0xe741706adba4dce3U, 0x828f61f3383d63bdU, 0xff6493c69e638ccU,
  0x56e9d6331ce003c9U, 0x73fc1645e2e8e531U, 0x21f8165868c97f08U, 0x15bac09bd5be7637U,
  0xa0599e25e775e15aU, 0x3242f6f764932463U, 0xf08dcfdc896e8d2U, 0xfc92feacd11be738U,
  0x532bfcbce35c49d2U, 0xd9085f8e3624fc65U, 0xea282c196640c71aU, 0xc6a1bd8ae4a57f22U,
  0x48179ceda1ff7802U, 0x84fbdb443e00a2c7U, 0x2d8567aacdab58dcU, 0xb0aae7fa65bbcdb3U,
  0xdaf13fc012a3da50U, 0x15b508b0e9ba009eU, 0x2460ab3d9ca9b93eU, 0x640b4a392242963U,
  0xc7752e0712674056U, 0x28123445543a0adU, 0x44d2a8b5e52fcbfcU, 0xd63ddc2fd06011d8U,
  0x94e2ec3c762f41e0U, 0x5e0cf0cf08c69f38U, 0xdf3c402648cb41edU, 0xf21f31d3329124b5U,
  0x2d4f4793da1b0102U, 0x1ac20eda1f272e58U, 0x60a65b0ff4c0ea53U, 0x2c37d6b781c4bca1U,
  0x341ab0c7deecd5f0U, 0xa2cc15c6cc27bafcU, 0x2a2f820dc846c241U, 0x582b33cc16aa7f00U,
  0x5ee697c6ecc9db25U, 0xbce053f8c1591871U, 0x2d3a3c64172e24c1U, 0xeb26ee3175903400U,
  0x2c3793dc71d3cf00U, 0xaf40a81b817128d4U, 0xfb3e8ac1d77f7227U, 0x69214e49df324aa9U,
  0x505cc1265bbfc546U, 0xa1cb0dbb20e6613cU, 0x74fabec6fdac113dU, 0x5f7b1c6078a80249U,
  0x37002cef07e9465bU, 0x767d7adea5be0841U, 0xcf2c0a2c066744cbU, 0xed0bb85803fcbeb7U,
  0xe0a4d881e6592cd7U, 0x3b4112f6dfc32fb9U, 0x540e10ab2ec1fb1fU, 0x71d200ae0010242U,
  0x58f242d3e7f34db3U, 0x204b21caf30e46b6U, 0x4e45a94c52f65ce5U, 0x2387fa72d147d25eU,
  0xaf2fb09dc9ffd53eU, 0xd634cfeeeca59cedU, 0xfb896b969d92e2aeU, 0xeb4dd7f7811752e4U,
  0xd2664157f3bcbc2fU, 0x2cc5cdce32d7fe5eU, 0x2507e9f94592153bU, 0xaf6935118eab01acU,
  0x7081f6d4602fbc1dU, 0xd5a499ae4e607f74U, 0x1a2f42e851d804caU, 0x95c4b8574036e85eU,
  0xeaf5299db6692d17U, 0x3511e625c0ba4d95U, 0xe7ec03a928330adbU, 0xfaa7decd5930f80bU,
  0x299eb8b11788303fU, 0x6654aff2457fed43U, 0xeb6ed6a41c4d9d54U, 0x1cd932c321663b54U,
  0x5a72aad4ede26753U, 0xae59b816bbb291a9U, 0x9efa13cca1c3d8edU, 0x3b9757df2ee1df2fU,
  0x329f5dcabe5aa0cU, 0xfb065a19507c846U, 0xc5848fcd1a3f309U, 0x74525400b11f091cU,
  0xe5e4c21ae707b508U, 0x15dbf597b5812af2U, 0xb517ef9ba72569baU, 0xf76415490b903524U,
  0xb44da1e75bcd1318U, 0xd81d9168b57e81b1U, 0x9a0f01549c20cc71U, 0xa2688c2825ec4916U,
  0x69cac52816f72e40U, 0xb1141c6fdbddab10U, 0xdaff54aaaf22eac4U, 0x1221c5e9b90b92c8U,
  0x5550dbc2ac4e1c5U, 0x12ee4b454b5f151bU, 0x14244e99f670fbf5U, 0x1eaf652fdef466f5U,
  0x6f81afd79406d0f8U, 0xbe95f1e5a3b2afdbU, 0xb760e9fd60380d28U, 0x4c31cf2e285c1702U,
  0xa68b25352acad839U, 0xcb51a00a7f045291U, 0x9c336401b60e2e91U, 0x58662b430b08c20fU,
  0x1af6efc65da81999U, 0x331aeecfbbf84cefU, 0x9bea4b4015f2b668U, 0xa80ffbd6a65e25eaU,
  0x30fb31e7fa296af4U, 0x1c5eb18ff692560eU, 0x25f305bb549dda6eU, 0xaeaa01d832a8ee85U,
  0x983bde241bf71742U, 0x47837f0d2a189281U, 0xeb40eff7b2ed36efU, 0xeb3a61e3772d513aU,
  0x2462a0ef225f0edU, 0xf79fcd3bc9aeb6d7U, 0x61449c2cbd5bedf7U, 0xd0dfa4accec1b0f0U,
  0x55b1b0204b370c60U, 0xa662812cc3aa07a0U, 0x647250c483fccb8U, 0xd719113d109ff13aU,
  0xd3cfc62a69aa72feU, 0x81a2037dd2583271U, 0xc1ce99a225685724U, 0xecb562b5cef39a05U,
  0x47700af66c646e31U, 0x20bbf1213e5ff527U, 0x60b6ba6af016a531U, 0xd3e4d974620483dU,
  0x3a6f6abda1e6b014U, 0x668b3a1ab052651cU, 0x2e3f41ddf57f501dU, 0x291e51f91cfada3fU,
  0xf07eeb40e35430a9U, 0x419b30da56f9ae92U, 0x23dc51251413bf98U, 0x9e12a9b020eff2d5U,
  0x9602d0a5d36f08c7U, 0xf3291eebc4e952cfU, 0x2a36280b63b41039U, 0xfad1910f3104b2e5U,
  0xbc45a4a6702d7f37U, 0x47ab0d10190c36c8U, 0xebde2011786f2113U, 0xfdd6df6efa4b16e4U,
  0x4c04e155aed55f5U, 0xeff4161cfcee6817U, 0x27047f4bc15953d9U, 0x4fd6a3ca8bf69ff0U,
  0x47477138a52b30c4U, 0xb60edb49221f934bU, 0x594799a1925cfd8bU, 0x4075f309eec8bb01U,
  0x7ee9c552da954ff1U, 0xd818fb2cca68a687U, 0xc5458781f4ec331U, 0xcb3d09dda601811bU,
  0x68553396f18d07fdU, 0xe11f510c3c791f35U, 0x500565f72a44d20dU, 0x3f1ce5ad372b2dcaU,
  0xd508582a729e083eU, 0x3a14141fe52ccce3U, 0x18050118f86f2b81U, 0x1cf00e42289b622bU,
  0x1d9b365d66e53130U, 0x1aabf340ecc50735U, 0xdd41d235bf00bc92U, 0x5d9cc4d251dd95ceU,
  0x963d1a132fd7d435U, 0xf3b09df0d7a3b66cU, 0xe9d2a379d0b2e2b7U, 0xc641512f4f42d1ceU,
  0xc144a740f64221c2U, 0x3652217fc3096c1aU, 0xcede4a637fbbd45U, 0xaee5f164ccf9b24fU,
  0xe2aa83add34f0eeU, 0x13bcad58c67f64bcU, 0x6527c5cb70a016ffU, 0xb166bb561c075b0aU,
  0x81215d0a99cf008U, 0x9e2115ab1fb29d4dU, 0xcbf70dfe6c424a84U, 0x18c94608cd41924cU,
  0xa960dbc9fb0d4d58U, 0xb1ab2aff4311b14eU, 0x230152cd2681bd04U, 0x901501d2ec7178f6U,
  0x6132e043c342ed44U, 0x9ca4483b42d22475U, 0x28d93307e4d8d001U, 0x763b9b3b23c5688U,
  0x215707012ab726a1U, 0xeee21d171f5ab7f0U, 0x123898d9c3e09b0dU, 0x6a501fb1b1ae9d2eU,
  0xacebfa3b467fe512U, 0xfaf016334aeca9fcU, 0xefb1d85450d8bcb8U, 0xf1b0b6c6be1445e9U,
  0x5737e3e90bb0f248U, 0x9fd6b0dc07e381adU, 0xc8265e23f61aff63U, 0x113b13c400ed6bebU,
  0xdfa2baa76ca7b407U, 0x5c4e204536ecad35U, 0xe6bd4f533ee7e354U, 0x44dfb0a02edf4279U,
  0x60fdcd13ea3a42bbU, 0xb5516bedabdd7b62U, 0xc2c1054bb23831edU, 0x1cea0d4102b7f9c2U,
  0x75dc583ffdc8c7faU, 0x7f1b4c884847a7e2U, 0xdff7a094bbae4626U, 0x9803fbd4c456d3e7U,
  0x4a0afb1963d528cbU, 0x3a4251feae0d3a09U, 0x81030b183d4e3a7aU, 0xdd2307ed36f43e56U,
  0x51cea4cc030a3b65U, 0x2c1733c810fc0283U, 0x6e5538e105861b57U, 0xc76bf628f43b45dcU,
  0x220db21bdbabc408U, 0xaf59bd8927399b68U, 0xbefa08ba1b65aaa0U, 0x7f10bf316a11226dU,
  0xb9156663dcfc20bbU, 0xd1e7468838dfc955U, 0xfffff2beffffe331U, 0x75e00001462U,
  0xfffffc8fffffdb2cU, 0x5834ffffe143U, 0x2d0effffe3efU, 0xfffff95000003b8aU,
  0x1a1bffffe956U, 0xffffdb9e000016edU, 0x341e00001da1U, 0x3269ffffe00eU,
  0xfffffb0c00001b75U, 0xfffff7fd00000659U, 0x39effffecc3U, 0x226fffffe0c4U,
  0xa4300001007U, 0xfffff61700000305U, 0xfffff2ce0000040aU, 0x3594ffffe92aU,
  0xe0bfffffbe2U, 0xffffbea2ffffebceU, 0x1f6dfffff7d4U, 0xfffff91800000070U,
  0x45700002c99U, 0xffffe59e000021f3U, 0x13cf000010b9U, 0xffffc73bffffdda5U,
  0xffffd26300000a63U, 0xffffd2fffffff0f9U, 0xdf500001a7dU, 0x115affffec94U,
  0xffffda1d00001f32U, 0xffffeb01fffff2ddU, 0xf7b1d3d8fa2da6fdU, 0x9ecd4cfff07e30b3U,
  0x1e7f25c7efc501d4U, 0x86ac53b436f8e4caU, 0x7f81818dd6f01aa3U, 0xc6d92bf7e9128147U,
  0x4a6c0d1df18181ccU, 0x1ae781c01fc43473U, 0x3e377a2e7b4487c2U, 0xc5817f7f2ebf18a9U,
  0x363c62240be2c0f3U, 0xa3e1cfa73c330233U, 0x542303bbbcc7c781U, 0x4a13017f5c180c7fU,
  0x8e7f147a78d0bf46U, 0x7f46f10829c54db2U, 0x425a8130e0d72912U, 0x25851a12f9747f44U,
  0xdd2c5f8112ace527U, 0xca49e5dbff07207fU, 0xaae1ee274923c5e2U, 0x4f4a2255a188ed45U,
  0x63d1813e7f2c0387U, 0x90a8e0434927b1c0U, 0x8ddbd207371eac70U, 0x7f37dce27ffd6281U,
  0xfb2caf297f37f187U, 0xea817f72c213c0f1U, 0x4c30e21702fc63ebU, 0x56ec7f2b2b0bf014U,
  0xb0b83aeb058327e9U, 0xf7fa7c3d003a1c2U, 0x90ed9d7f74ddd59cU, 0x50c4055c10cd1b86U,
  0x241e8ba3090af1daU, 0x895c7e31f8137ddU, 0x36f3a4b27fa97fd8U, 0x7f815e1fe6aac408U,
  0x194ba4082417dd68U, 0x1bdfea65a08bb25U, 0x29391e267f81bb89U, 0x3621e653337f87fdU,
  0x1d33816210933f95U, 0x424ad976b05d7f6bU, 0xb10fef84aa818ba4U, 0x5e6f034baac2cb9bU,
  0x3b25d0e321909f29U, 0xc7f13f8f7fce4cb4U, 0xe3cfdf68eda781b6U, 0x44815e28b1629e9bU,
  0xfe1a03e8eff14300U, 0x12b2f55b1c2f5106U, 0xc34d63814b4b29a3U, 0xc200e1242abe687dU,
  0x13c2d981552fd603U, 0xc03f567f1fc2cc78U, 0x817fd27035cd4f1fU, 0xc403bbfac7a4b1f9U,
  0x7f71cea7ec7d7fbaU, 0x8fa604f1c3bf2aaU, 0xcb29f3509cba913bU, 0xe222d1e081eeacc0U,
  0xdc90cf953e341ce5U, 0xc5dce53efc818136U, 0x5a2a0ad54a73a981U, 0x1785f9d3518afa98U,
  0xecabd2f277f6581U, 0x81f0617f7fd605f0U, 0x1d3868aaa22d38f2U, 0x994bb2bea81ee65U,
  0x81cb401c20b2d881U, 0x3038e2d30d40ef81U, 0x1a6f00000f80U, 0xffffebc30000010fU,
  0x99effffebccU, 0x933fffff847U, 0xfffffdb400001d8bU, 0xfffff791fffff6a2U,
  0xfffff66afffff249U, 0xfffff6c500001980U, 0xfffff6b600001cf7U, 0xfffff7d00000025aU,
  0xbdd00000728U, 0xfffff4a1ffffe81aU, 0xfffff787fffffc04U, 0xfffff726fffffae2U,
  0xfffff45afffff0f1U, 0x110a000010acU, 0x1a800001b90U, 0x73400000cbeU,
  0x646000015d9U, 0xfffff9a7fffffd0fU, 0x1045ffffec0cU, 0x88c00001813U,
  0xfffff5bfffffebd5U, 0xffffefae00000236U, 0x15fc000009eeU, 0xffffe7b8000010ffU,
  0x772ffffff86U, 0x3d000000ccU, 0x8880000015cU, 0xffffed8400000cd3U,
  0xac2000004b1U, 0x3d1fffffd52U, 0x369ff6b4c54a5f39U, 0x333edba91ff64c09U,
  0xe9ed5259ef21039dU, 0xc56cfcd2290c056bU, 0xcf64aff59562c2dcU, 0xb950162400c1bd12U,
  0x3681a6109dd11903U, 0xcfa2b7410f04d4deU, 0x12350d36cf614d2bU, 0x4c2e1d5b55ba6e91U,
  0x382ef1e9e2e05fd9U, 0x84dd09e431a165aaU, 0xaeb04f15a49bc6fbU, 0xc00c56b9b8823b11U,
  0xc4e5b036e158213aU, 0xd0a3148f7f7222ddU, 0x415c4fc4ecdacddbU, 0xb28dcebe238c006U,
  0xe640f4bcf881ccfbU, 0xddbcdc25d35a17b5U, 0xa489532d0b054d8U, 0x9fdb66ddfaa6bc4fU,
  0x19f1773dbfc0fc24U, 0x10fd663cc2fefbb4U, 0x3458cddffc230c84U, 0x9d44cbfd96ec142U,
  0x60993be3c61fea75U, 0x91ebc7fc2f1373bU, 0xbfddad520daa4dacU, 0x66c80ae59f4bf1d0U,
  0xeda7b7f914b13b69U, 0xfea5a609c704eb39U, 0x3606e010fa47cde3U, 0xa91fe1c2e144f12fU,
  0x7fe455dd29aaf6cdU, 0xea9e0612b73600c1U, 0x4c3f2c083e935bd4U, 0xba09095b17e347acU,
  0xa7aaec74aa9a9a1U, 0x8b3dd6bd7d9c41ecU, 0x53be58575fdb5243U, 0x3c31d3fc2db5db0bU,
  0x12691921fbe7068fU, 0x640531e0102ff9cfU, 0x1327fecb540dca07U, 0xce6659cf5101ddbaU,
  0xcec023cad63d5faaU, 0xb9572a367fbde7eaU, 0xec3be0514b217e5U, 0x10474b3581dbb0d2U,
  0x423429478a48ab0dU, 0x623ef3517bee62d1U, 0x8a4048a8249fd2e8U, 0xa9bbcb5fedbaa905U,
  0x237d5470e4db20eU, 0xb0ceee0ec493fb9bU, 0x225cf2d39bc6dff5U, 0xaf6b686416c023f8U,
  0xd27233ec53b0f7c2U, 0x11957090119a2a15U, 0x7ff5deb9dec658c9U, 0xa51e20d108c519c0U,
  0xa44c00601bf86c8dU, 0xbfecf5d1c7c0d206U, 0x3f540c57aa832cdU, 0x16cc7f33ecb561d3U,
  0xc0fefdbc46050cb9U, 0x14a5ebb2ab622ef1U, 0x3de1f7a4725f9ed9U, 0x609fa30b2e856e4U,
  0x3e495d2d28ab34dcU, 0xdf58e246d2ed7b25U, 0xdb1eee1deb627496U, 0x4a41a31caf507a8U,
  0xe2477fb715d32bd1U, 0xfdc925c635d4b2c6U, 0xab579dcc3e47e122U, 0xe800b04e053784ecU,
  0xdb41c420622c4b7U, 0x8a530959cca69aecU, 0x36e40f0cec214159U, 0xf5a00e4897bf05U,
  0xb1e82fecc50ccefdU, 0x702a7acdeedff31U, 0xdaa84c68c8d1e602U, 0xc0109c64bd7fd464U,
  0xf42845c73d5f3bb9U, 0x52d06fc346aeba33U, 0xd1d009269cf8f9dcU, 0x8ae5c815631555dfU,
  0x313e664e2a81ebe1U, 0xb06a4445c3f1f928U, 0xae58e20d971f95abU, 0xee38ecf856ebde07U,
  0x732dd525cbb915bU, 0x4351b39e6d25e5b6U, 0x17f304556311825aU, 0xda6bbe4cfe98d9bfU,
  0x55e618f2b099b4d6U, 0x59f1dffdda0d4681U, 0x2f4943692fb34b81U, 0x9dfcc62d4e1cf910U,
  0x34194748a695d109U, 0xd574373e95fe135aU, 0xe37f95098afcf637U, 0xc98a3c15a42017feU,
  0xb2e0df5905c7d256U, 0xdcf765ab58c35745U, 0x175a5e496ca5e15aU, 0x41cff6e78b9be0d7U,
  0x4ee006ae720e08faU, 0x1a1d1264c5dae0caU, 0x4bd1c44749e74cfeU, 0xdb1c1167b3c50cc7U,
  0xc619281e023cace6U, 0xd763c032b0341145U, 0x6618bbb7fff34bb0U, 0x3b4e0cdff6937f3dU,
  0x54c047b6fa465747U, 0x3e3ae206e5dfdd9aU, 0xfece34b8f33c2a38U, 0x51fc4566f8a86b0fU,
  0x3b404728ef1c3dc7U, 0x647c73a4c47f848U, 0x650fd7adf73b02efU, 0xc73a4ca519dbf9f2U,
  0x494727b93134e0d7U, 0xa635405f633b7f1cU, 0xd129f0d2ba9d39cU, 0x928199ce51f8d0e6U,
  0x167510b032d9452dU, 0xc515194c2e3f3e7aU, 0x762bdc0e53fc3e0U, 0x2adf4cd3270a4231U,
  0xebf332ac5eb8db5aU, 0x281a05d1e6314f5dU, 0x62b5a9c5ceca4951U, 0xd65621601fea42b3U,
  0xd31d6c63d0f5f364U, 0xa7de45afa654da0fU, 0x6604b3f0f6903a29U, 0x185dc3c08004af0U,
  0x2a37cf237fb9e8b8U, 0xec736bf8a351fea8U, 0xc83c58be20e8b361U, 0x38017f431db5435cU,
  0xc971203e06dc4a13U, 0x470a34ed2d5ff6eaU, 0x32bee5581bac109bU, 0xcbb4699559e43cdcU,
  0x54c4c1f9dfabfe38U, 0x653ce55612f93531U, 0x2abf1757e5d122e1U, 0xb70160b5bcaa26ccU,
  0xb8f5bff65db7db1bU, 0xde273b37b903a912U, 0x90f310dc49fdaf52U, 0xe2feac8102fec006U,
  0xb94ba7c3276a173eU, 0x35b8f2cac21b2e51U, 0x26db2b52b769902eU, 0xfb3837648f5fce56U,
  0xa4046fd196ab13f0U, 0x9ccff0dec71d4574U, 0x1dd4532b7fc96c84U, 0xd88dd3ab0ad360e0U,
  0xbec1d25692681bU, 0xb5f672bc246efbdeU, 0x78b52b1e428d443U, 0xb2b0e281cbb5bb21U,
  0xc20e78ebd4fe02beU, 0xdcf5b2c1b0ca5b17U, 0x2befd14102cde4a0U, 0x40b8aab05858c540U,
  0x93e842415d4a42b9U, 0xcbe73813b895b9e9U, 0x72e73bfcb512afa9U, 0xac9c61ba42d1631U,
  0x77134f18a2f5d241U, 0x30d200f059f46acU, 0x6300e81996cfdbb5U, 0x2161fbafd0f4b9dfU,
  0xd7bc1dd92839ae55U, 0x33f881dce49e25faU, 0xc31d3d651cf1f3f6U, 0xa935caf32975a981U,
  0x3056f00df1740af3U, 0xe2c4f64b1619295bU, 0x323b6bbe0a196142U, 0x7b5c2a9e2411edcU,
  0x985be46ce76831dbU, 0x1e4b3fe1c85ed519U, 0x85ac880bb26aecU, 0x724aaa7fce0803f9U,
  0xad39d87d34c62451U, 0x94e13ebdd09191d7U, 0x9c276d22af4ddcd4U, 0x65ba215df9d0370dU,
  0x365b69224be9d760U, 0xe89136e1d5fb59b6U, 0xe04d2132f5fe4324U, 0x52ddc12b1b372bf3U,
  0xf01ffbe9b8f2dd42U, 0x35a7d3d625597fefU, 0xd8131634daff340bU, 0xf610c5a0e5fc41c8U,
  0xf3d047ac525a9e3dU, 0xb008d10838fc3cbdU, 0xca3553bc7742bd51U, 0x7d182c4ee63fa55aU,
  0x78c7f73101390201U, 0x3ddf16e850f27f45U, 0x5c63341c1af6ec53U, 0x4dbd45d8fe0308d5U,
  0x3bc6f27c09fdf843U, 0xe0ceed70175756d0U, 0x714404a447274943U, 0x42de053d43116defU,
  0x83d59e4e461827eeU, 0x9e1ff229f7483951U, 0xc934e792250486dcU, 0x996ee96e2737b098U,
  0xd59e44ce934a2590U, 0x5c7564dedf7f3e65U, 0x304fe43acdffe4cfU, 0x64e3ff53f8a5d28eU,
  0x5d7facec9e0b53c7U, 0xc1d545f89dd766afU, 0xc5f3caf7f0f0f0d0U, 0x17d007f64d09fbbcU,
  0x3931b0f2cbb5d933U, 0x48eaf0fe1327de2bU, 0xbca53437ec5fdda4U, 0x185b9d3818e4ee16U,
  0x44535179290eae1aU, 0x3d47cc374b02346aU, 0xd0dcbe5242dd95f3U, 0xa20fbdd16bf014fcU,
  0xc9ab393aebc7c17fU, 0xe146a5dbff07aefbU, 0x7566f4110f238c3aU, 0x8dc2f51fd07f1b40U,
  0xff3298b69c68a5baU, 0xfcf8ea1cfb157494U, 0xcc4de8ceced50de2U, 0xf4e4f24b5bb6b4a3U,
  0xab4aca1f6598dcb8U, 0x614b91037162e017U, 0x18fffa1b63839881U, 0x251bb32a1edf2550U,
  0x29c3ca72d911fa6fU, 0xee6056e68e88d8a3U, 0xc71142db48357caU, 0x533685f8c49829d1U,
  0xacd7f6dddefd65a0U, 0xfcbbe22fe319445bU, 0xdc4e4687a115fU, 0x581daeb04ea1304fU,
  0x6dd09af11fd1006U, 0x204faf900db8c3d2U, 0x6b5347e85478b06aU, 0xcd7a9bed6134daffU,
  0x377f5e644467c5dbU, 0x1029fd92ea6693d4U, 0xb2124c25902b5ad1U, 0xe7f0e7012de7a419U,
  0xf79daa33f0f296f9U, 0xffa888a3d00e9600U, 0xc43daa24d7e8812eU, 0x981617e99ccb4ec5U,
  0x1983b843816705c1U, 0xba532bbad95e03e8U, 0x4041d46bc407160eU, 0x6a70586b5d10a268U,
  0xee4e15eb4cf2f8a9U, 0xe1d82948e2a8c266U, 0x5981d4cc8b39b99aU, 0xe5140fb7d7a9b608U,
  0x4b66f8b96467f5e9U, 0x3ee94232e5492b4bU, 0x4b92200ddadbdccU, 0x5211e25db9eadb1aU,
  0x781a99bb0d224012U, 0x629c280f02b9e21bU, 0xf93b40065553ccceU, 0x626552fbb0ad07adU,
  0x157f0a30aaf7ac19U, 0x1709df10d911e046U, 0xc9a9cf5e81b24f69U, 0x1cadc6e2f04d2639U,
  0x45c5e74b47cd0e6aU, 0xb8cb07d6da4a6f2cU, 0x82f651f5241e2e1eU, 0xe41bed065d8f0729U,
  0xe83330a8f1bd056aU, 0xf6c1d6e6470992U, 0x38befc2d239b2d0cU, 0x12292b2bb8c9c6f3U,
  0x24f230a2251f1b29U, 0x2f9ce909c340b214U, 0xf333cac6d1c5ddd8U, 0x93bb0781cc730aadU,
  0xea3443ca9d3c60d4U, 0xbb0306f03b17de0fU, 0x9b3c33204afab80bU, 0x7617ee001ae7442cU,
  0xce419ec7b3bb41e3U, 0x5d037e2e4b1443b5U, 0xc4577bbbaefa2295U, 0x7e9458e110b25fb9U,
  0x7f10ca694d1fe14fU, 0xad32175dc4590dc3U, 0xcd9d4eade4f71e44U, 0x5b3d021243d3d20eU,
  0xc2f7bfa95e27dd43U, 0xaa6e40820bc7601U, 0x23f0ddaf157f3548U, 0x253efe65279b0cb6U,
  0x50bef8460df845e1U, 0x5c9f2f21f0dbe0f9U, 0x290058e61161bc33U, 0x20442eecb7bcbdc0U,
  0x9a30aafb2d081aa5U, 0xba477f1620da0dd1U, 0x11172726b15aecccU, 0xc1c0d1a3af454336U,
  0x3d4495f637e8d6f6U, 0x73cc4be71858da06U, 0x3f37ea4dc299f23eU, 0x10bb294e463de19bU,
  0xf233e3e12425214cU, 0x9b090c3101372504U, 0x35fa5ce80dfaab49U, 0x7fc12edfd9f6e29dU,
  0x10b63042cc192ecaU, 0x38b4cad13d45bad0U, 0x2a60259e70bde8f2U, 0x7744e72c42f98f0cU,
  0x2669b7c4bbddb609U, 0xaffb94b425e471e7U, 0x4c62fdf6fee398b4U, 0xd9b10093376bf7a1U,
  0xa7736a324af6607fU, 0x19e9350c6ff834d6U, 0x13a9432d3410d9a1U, 0x18f83dbc8196d2cbU,
  0x7ae10fdccac8cff7U, 0xc548a614ef695d5aU, 0x86d6cb9b2a5e0ff9U, 0x44fda36b0ab20a54U,
  0xe203073a2f8c48dfU, 0x50c70a172ae6ba37U, 0xfbf3db06dca3d69dU, 0xfc35815646f76e34U,
  0x410d6a116f24afc9U, 0x6785c55b2568472fU, 0x366abc5a23b57b62U, 0x3c5118e24d10f278U,
  0x29113a16db891bf6U, 0x6cfb2ed0e63a4628U, 0xf384f1e409c50bd8U, 0x466412ff1bf459fbU,
  0x4a16af21dd8faad6U, 0xc6e724bbb6df3240U, 0x193fc8a0572f409U, 0xb0d757f5ae1b1ef1U,
  0x1aeeafd7ef94484dU, 0x6a467fd71d2d17a1U, 0xdeab4e6ebabe744U, 0xe3e87b7cb644cc09U,
  0xbf2f1dd0eb6b9d4dU, 0xd09a27b04320a438U, 0xe849c732d3ff2401U, 0x9d9e887f6336ae5bU,
  0x2bba20b5e4f22215U, 0x1d57a9b9964e335aU, 0x59be3542e33ebff6U, 0x2ffc3c351fffe0ffU,
  0x38d5efa6fa4cb02fU, 0xfe41ac0812f9e9e4U, 0x3bfc3641d4b15392U, 0x1a2fe827fcdd4e38U,
  0x3e26c7c7e4f5eb05U, 0x32d1ea422681d006U, 0xd9d444b76e485122U, 0xd2c60e43ff6bd7cbU,
  0x6ff9b5acb910c5bcU, 0xda0cf219ce074425U, 0x83d25f74622dbfdU, 0x6e1e4c245836d779U,
  0x93cdfccac2f010eaU, 0x557f1dccbfcd2535U, 0xbb0cf3b8854156a0U, 0xdf05e91741a9daddU,
  0x4cf1f6efa3554061U, 0xfb81bdfd583527c2U, 0x4a34bb2fd2f86349U, 0x684a0fcea859f11cU,
  0x43298f3e1001e398U, 0x2fe8f23d5e650d79U, 0xdf580ad13fcc0e10U, 0x239a399866191295U,
  0x23c070c422d96866U, 0x1605dfe656dfbfadU, 0xb6d2472cc01511dcU, 0xe9db381dbe3eeb2dU,
  0xfbdfce3b622581a6U, 0x1c9532de92b85f01U, 0xaacef3b148e78c4bU, 0xb1ad41e8351dce54U,
  0x237fa3321c3d90dU, 0xc08de41fce157f53U, 0xb8e253e9dcb51251U, 0xc2b210f6c78b5415U,
  0x612b02e70c9cdb6bU, 0xa8f8b811ed4fd948U, 0xd9f8950a72a6bc8bU, 0xafb7335fd839f8b7U,
  0x5edbb9f1604427abU, 0x286b0110a9fe5e21U, 0xb79f05057ab6a0ecU, 0x2c3a48f2d9a96748U,
  0xcce6a23b0b255b2dU, 0xfa557f62a6affc03U, 0xc5324c0117e9350cU, 0xd9dccb28e83fc2c7U,
  0x26aa3a295b5fbc64U, 0x55dcf6bc4ddb55beU, 0xed544615934cbedU, 0xcdc6def4b65d46b7U,
  0xc68bcfba2fcb81c6U, 0x50aac5d120c0b278U, 0xfe9eb4fa32fe9109U, 0xa70336ca37451001U,
  0xace9bdb6fca22a9dU, 0xb94340e20ef00d46U, 0xf0d4d9a922a0b9fbU, 0x1bbfc13028242850U,
  0x443ed679fd9a24c2U, 0x7fb76c45b48f7de4U, 0xc9ad51a637d18e64U, 0x5dabd0b70ced4297U,
  0xa33b25053be7c04aU, 0x5f4ee7a42ba00681U, 0xa6e63c5f1bfef461U, 0xfcebaa879c545873U,
  0x3fc72541a4b2cbcaU, 0xc80c2c5ea26a73d9U, 0xfc30d236672da4c0U, 0xa402b3c4b139e910U,
  0xe3388b34c3b066b5U, 0x3dfb6706f33f8128U, 0x39ddc723c632f2cbU, 0x6cc24c8325c0e944U,
  0x96669d4c4fe26f1U, 0x4a40c6e57435fc38U, 0x3e6ece63fc05c41eU, 0x68d3210ba5caef25U,
  0xad133e0d02b94f26U, 0xfcf1f2f80be7d008U, 0xc6c2de083eaffa3bU, 0x44aaa2217f52e53bU,
  0xb1fb2a6643d707dbU, 0x56585b17d72d0634U, 0x7fb6ceae23d145fdU, 0x4b7f4e10db68a089U,
  0x3dc4ba13dc34abe1U, 0x6da5609da50c5aebU, 0xb5ff9ac93dde5575U, 0x3243d8bf8cd48e0fU,
  0x459c5462ac355b26U, 0x5799b7261e95dfabU, 0x3d2cb831705334d9U, 0xa667e4beb2cb3f6aU,
  0xe4b50d59de4e079cU, 0x9147e6555664678cU, 0xbb5e42c43f655a16U, 0x4fd3bc3108f2f321U,
  0xdbb5e6fa22ed6634U, 0xad3617e57f260e13U, 0xc78d32962adf2aecU, 0x36f6fe0867cae631U,
  0x8ff6c752abfa499eU, 0xde2e62cb4917402fU, 0x410412b908a0a791U, 0x953f350d63a400d7U,
  0xd87f03d22a225a10U, 0xa1375eecea9efe47U, 0x5435f115440ea2bcU, 0xd00a18cee315062aU,
  0x2dab0d33cd815a47U, 0xfd32df91a1b5bd9cU, 0xd1b3e6c4ffcdf4dfU, 0x1240fb0091f900dU,
  0x904d311e41467e2U, 0x9de9250951d3acddU, 0x387f17ec6da70892U, 0xdce74b4df48810efU,
  0x9c1e8e0ef1ebc311U, 0xd33bf4d02cab1fd9U, 0x51ef8a2515df508dU, 0xdc46072935f2eeb5U,
  0xf7a6b86de6462dd4U, 0xd62a51f1cb0fd4dU, 0x60bd122d2fedb2fcU, 0xd418be34aa19c0faU,
  0x6418a125a1818fbfU, 0xb9da18cde1314514U, 0x51a427aff83f5668U, 0x4f5097a93757220bU,
  0xb3732724f1b547bdU, 0x7236d1a7bd0b9bdbU, 0xfb55a99ab0a0936fU, 0x34e0f2624531cf1bU,
  0xb1ba5037b30b906eU, 0xab0ed90ca0d4267fU, 0x1067bae011580920U, 0xcd0539184cca022cU,
  0xbc7d50b1445b969aU, 0x99166ca4461aa938U, 0xaf7f082e42468ba5U, 0xf2210ad856aec452U,
  0xbd50435eca2e290bU, 0x305adc1eed4a13e6U, 0x6f5ceb5a433710c4U, 0x31d9532bda32e6b4U,
  0xf29907f6673daf5dU, 0xe050e32a423d0fdbU, 0x41629e4cd3b609beU, 0xdeeedcc34c5564f4U,
  0x342216d920421dd6U, 0xcf26d0de211fd836U, 0x7f3cbbc1612fd2b0U, 0x68bdc1ccccb3dfddU,
  0x357916b26b10d026U, 0x71d5e2eef122ec39U, 0x167fad728be90bfeU, 0xba04a0135e6ff9daU,
  0x41a72ff6ee2fbb8bU, 0x1ad52f5c3ff06754U, 0x3a56eb60deb11fcaU, 0xc1b3dc15c1a94662U,
  0x9a41f9cc4d2ae4b2U, 0x6ba565073ca0166fU, 0xd3f50b8199f2f96fU, 0x4b356b750c9f2e4U,
  0xd63dfa952382745dU, 0xfae0f239ace5e1baU, 0x8bec5cee822796d2U, 0xd406073c2f132fc6U,
  0xbf2538c4fc3cdc21U, 0x532883fc32661e34U, 0x391ad216da28393aU, 0x330bfce9ddcc1ff3U,
  0xfcf50828e4f6103dU, 0x2e0ce1af9def4c5U, 0x5c509b0bbbfd681U, 0x2f180324c1c5c3fdU,
  0x4e2250c47a7f9f6U, 0xa8561802fd1a3435U, 0x22c13aa4a2fbc93aU, 0x3cbad84ff3bb36c1U,
  0xe191c4334949d312U, 0xe9e79f5044817ed5U, 0x645807045a5208f4U, 0x3566f05c98a41addU,
  0x6cc21c21155d4f6fU, 0xb599e5cfeac6ebb8U, 0xde0ff2f681de7df6U, 0xde302cdc39ffb4a5U,
  0x72c9eb8a3fb91c8U, 0x23b4cd4bb328372aU, 0xa5b8068f1d673248U, 0x2733d22be22109a0U,
  0xf6f2a1b25fdaad65U, 0xa6d8155636f54bfeU, 0x38f4f1e0ec2ae55bU, 0x2dcf54390339fed5U,
  0x4673af40420bbc9dU, 0xaccec30b2e9a18deU, 0xcd4f24bd6224ec34U, 0x7f62dbd4cd281f17U,
  0x3ddbfca4e1ef3f0dU, 0xd4332dc362d99dcU, 0xf5dc81e948992cbcU, 0xbc7ec12ba9cf8bdU,
  0xa71316ef9bbd25f0U, 0x695b6be72a1760e2U, 0x9317db2af0ff1e46U, 0xb18c9b0c5a16b01U,
  0x35ee385a24c32aacU, 0x4cdd23c3c020ed9eU, 0xeca5bf2906e41615U, 0x82abbb0639dc2fdU,
  0xad24f7139a0327e5U, 0x2e7fa7adef9f0a78U, 0x3d2fd4ff188ad31dU, 0x109bbe3d84e3c3cU,
  0xce572bb7fdf822a2U, 0xac96d94377f23640U, 0x533a2ce8f74c3905U, 0x5bc75d49a93f2f6aU,
  0x4ec021014dbc4ef8U, 0x674eb91ec408cba3U, 0x1236c101001e581bU, 0xf757f8c43b54f95aU,
  0xeb27efb97f49fbe3U, 0xefe9d42e620fcb33U, 0x26f724a52aabb253U, 0x26cfc3c7ddc01febU,
  0xbe2d06cafd464760U, 0x2adc0cbc9f39d2cU, 0x30ac3422ce693681U, 0x7bcbe3ab33443fa3U,
  0xa723a39f31bec3a1U, 0xada20c193f56dc2fU, 0x2781fccfa2be0ff0U, 0x1eb2c3d343d04462U,
  0x41bf032bfe07fe15U, 0x55243615f61b9910U, 0xb13121dfecc8db3bU, 0x1059042e43e3a719U,
  0x1fe4babe3be834ebU, 0x30b32259344bc4e0U, 0x994042725de51c8U, 0x2f07292f135e5f24U,
  0x5ba138c2f5aef2e3U, 0x5f21aa6694f74ceeU, 0xd1e3b4351eda1f51U, 0x89fc6d5aea281c8U,
  0xde91e73fda3b45dfU, 0xc51e35355bc72e19U, 0x5b1e72f9404150e9U, 0x2f9ac7f3fdcbac55U,
  0x33445e09e9cb6bfaU, 0x5b27ec3f36d98a83U, 0x24abdb43ffcd7ddfU, 0x40d9f1211d3d59baU,
  0xb3eb34b73ebea9eaU, 0x364ef8dad749fe81U, 0x1445fbb6dd55d645U, 0x13ee502e70ddd493U,
  0x3cf34245e70a1b41U, 0x2d81555fb54f06e5U, 0xfadde14040ec4abaU, 0xa8bc37c29bede6e6U,
  0xa02cec14603ecabfU, 0xd334452fdebabecfU, 0xe68a4c8917241804U, 0xb1e6c1b4dc93ee93U,
  0xa5392f60c56f046bU, 0xf45ab3b955148198U, 0x2ffe536aeab30227U, 0xa8ae1dabb6d8daa5U,
  0xd443fcea0533b15U, 0xbfe92ee4dd2b57f9U, 0xcb8886169dd6eb44U, 0x2e41dfc3c5fd5b43U,
  0xdfbbab6be27fac3bU, 0x42d10f0f69dfce19U, 0x2a0728a2785bf38fU, 0xdfca5ae9a7865d46U,
  0xdc7e5e5ebdeca46U, 0xf51e670d102e5151U, 0xb23a3ef769461514U, 0x9f00c826c573b041U,
  0x60ea341704a8e805U, 0x118c0a537f1d2955U, 0xfc372662cd38f8a5U, 0x58e51048f6febc6eU,
  0xad1634372bbe3242U, 0xfb5fed0ca0cf78b4U, 0xbc5646ede9c4dd94U, 0x6411a3d55059103fU,
  0x46b03740a5648f7bU, 0x90ea0d5cc2e60d7fU, 0xa36603d8b34ec1cU, 0x4b060ec11e2d01c1U,
  0xbbc2ac14715c42daU, 0xb7c0c18e3ff778c3U, 0xcc3928a1320ff5adU, 0xc51d81a2a31d08e5U,
  0x8b1277a8c8b40a51U, 0x3622b1fdd7406616U, 0x34b2632257f51f18U, 0x8a25b100957c939fU,
  0x5df5b7368e3adaaeU, 0xc806723046ffc9ebU, 0x752f225c7e0ac81U, 0xb4fd25b038511aa1U,
  0xec3f39bcbb59522eU, 0x969a2afcc84444d9U, 0x203947e4425f11f0U, 0x262ccbd7b0f53ce8U,
  0x4e0aa71fe542bf2eU, 0x9bf2fcf367e34af7U, 0x43b659bef03998bcU, 0x4f261349e29a6b60U,
  0x5b0a7fbca2be134cU, 0xf3ebdf6d1c2d2928U, 0xd2ace0f0236c1f2cU, 0x2009deb22c295f66U,
  0x67f7a35ae1a8510bU, 0xe29be09e4cdc8b7U, 0x271f6b3c259bbf03U, 0xc5ac6ec4032b2711U,
  0xecf9ad5dd0b2152fU, 0xab322ac17f56ea27U, 0x54df638b14a54c3bU, 0xfd0fd53fd4c0793fU,
  0x113233e2c0d8f42cU, 0x4cc6526eaa5ff4e1U, 0xac20ede506b7ae56U, 0xe0d7afd1fcd1b997U,
  0x7fea122dfa2ba940U, 0xef3332ccf96bb9c8U, 0x111cf5b00442c8c1U, 0xeac7e5a4ecf8fabfU,
  0xb94b1a98553246a4U, 0xfd5de6ff756dbdc1U, 0x1ef115f527f3496eU, 0xa940479d41104aa2U,
  0x3711ce4d40e1b271U, 0x42e92e99a7d5c8faU, 0xe1522fb0ec3b19fdU, 0xb1c0327f043c06edU,
  0x3951a8e520efff66U, 0x5f4f1fb0c4f045e4U, 0x54800c34aea1ddcU, 0x961e90a46b435ddU,
  0xf10f58ef8a5f2eeaU, 0x66a82161522ceadeU, 0x7f07a742b42e30deU, 0xba113fd228a1282aU,
  0x329aac27027235cU, 0xcab2324759f9d7e3U, 0x5d21d2265c1d3efeU, 0xb324bc68591929ffU,
  0x403fe83f56ee9ef1U, 0xab29fe2fb4aac528U, 0x407fde9b08d62fecU, 0xe3ebd1d9ab9e1556U,
  0x8bb6e2e91e5b919bU, 0x4c07275bf0eaa4e7U, 0x52539dbfbbb796d0U, 0xe41c391b24b7cb39U,
  0xea2395b81c344d56U, 0xe7b254686b710e5dU, 0x705e20558cc57fc1U, 0xb60862d99a1d0386U,
  0xa148fbf81ddac8efU, 0xad0f008ef65c0fdcU, 0x132a4f597f9484d3U, 0xcf49314746b66b31U,
  0x2773280385ffac50U, 0xd8cf8e4babe447efU, 0xd2c4bc574592c096U, 0x4109bf14150053beU,
  0xf7ccbbf65c98e0f3U, 0x5a9c22c337f4b300U, 0x175037cfe928aa23U, 0x366419fe31a70fa7U,
  0xabdec14733397f59U, 0xd6c5f8541f567d43U, 0x221d51b84dcddd8dU, 0x3ee2e5281832103cU,
  0xe01c18a937f1f50bU, 0x6d06d9d6f3d63e36U, 0x37564de7197a669dU, 0xb10a471f7fe3ad6aU,
  0x25ca94e0f61ced32U, 0x8aca64f0345d305dU, 0x8a34ecbbd4c1b236U, 0x613b05034c0a1f4fU,
  0x8bc52705f515df52U, 0x1d7c1ef0711abff5U, 0x7c5f3e69ecca5649U, 0xe7085be61a5bef81U,
  0xc29953f30a4d07afU, 0xfa91eeac1f5254c0U, 0xe3a6a7b039f70259U, 0xed21eca443231796U,
  0x88dc3f1dacfaa721U, 0xbfa11ae6d56cf400U, 0xd7f6d3d68e626d0aU, 0xb4931441ea1a5097U,
  0x38d01dd5cabfdf81U, 0x92f999e41f8b9bfU, 0x1dba16b8d95cc4c5U, 0x3fe0aa49a4472aa2U,
  0x77ef54dcd04f58b2U, 0x23d99554dc33da03U, 0xf477103cc8778d81U, 0xfb513f9dde0d1a7eU,
  0x8fba37e914b232efU, 0xf59136336d5d0b61U, 0x3a46bb4a8d8cf1abU, 0xe56a6d15accc57f7U,
  0x69e9e23db34b5f5bU, 0xe574224e65f1c3b2U, 0xdc31fddf9f75175fU, 0xfd6d2412e4a669a4U,
  0x48eda1b429960df1U, 0xd638db2a1be8ec2dU, 0xcb5a348afadca7beU, 0x529918a8bcec19d8U,
  0x749babf12a7a835U, 0xff81d2763f0840f9U, 0xafda8ece11b22903U, 0x3b2d1a2fce37b00fU,
  0xfcf1acfa66cc9f13U, 0x444009e592ea5d8U, 0xddc51840cfc883d4U, 0xe2de0ad69afe26d0U,
  0xa638f01e99c1817eU, 0x9e58939f16e01148U, 0xa4af61271b4a23fcU, 0xe9602403104d49fdU,
  0xa61fa035dfa1d08fU, 0xf1368a9d08fd5f40U, 0xbee9d5dbbdd40455U, 0x2942dd9805e52c26U,
  0x537fb4d9ad14f89bU, 0xb3b5b6ec56043f34U, 0x8e14dec879bd4185U, 0x30cea16330d5b4e0U,
  0x132ab48993d4edbdU, 0x8d81e2dfe2f117f2U, 0xc33ff2e9b8490b19U, 0x6f4137a9225dea07U,
  0xcc65e6210915ebbcU, 0x1cf13675a6a75451U, 0xb56accf8ffe102b7U, 0x338f2f8d7fda6c3U,
  0xe2c4fab18eed3381U, 0xeb4d48f9ea35132bU, 0x7d8f4bdb72dcd36U, 0x43c6b106413139c1U,
  0xae0d38d6472f3e95U, 0x4c51cff4e8219cfbU, 0x417466df09fbc801U, 0xf565affc11a14e12U,
  0x22750385db81f5a5U, 0xbf4eb2b9251e4c59U, 0xd4a79afc042f6667U, 0xfafceff0262d9f08U,
  0x2ca9427168f7f9ffU, 0xa92f2fbc2992e930U, 0x606d74882550c6e7U, 0x911ba6229ab0d921U,
  0x3216bd07fa31a5a1U, 0xad28a2c6e8df1eb5U, 0x4956cc0629edc435U, 0x21e7ebe5ddda248fU,
  0xaadd0898ed1430ddU, 0x934522fa63b8f97fU, 0xc75c2d34180ddc62U, 0xa0ffd42c3ef082cU,
  0x18d827d1bac2c4dcU, 0x68f3282cff105a44U, 0x22234dbf1a1fff60U, 0xad2a26d3ce287fc8U,
  0x1e1540de5b979d25U, 0x9df4036a2eff6fa0U, 0xb6c7fdf01716523U, 0xe126b4cdfba822dfU,
  0x1b3216206de7f0dbU, 0x10e2b10fb4de22dU, 0x1501be40262b8d10U, 0xf246ac05af26e305U,
  0xbc6540a7ee162c2fU, 0x9d90c1cfe1081946U, 0xedccf1240930bdb4U, 0xf7a4f62e370fdac5U,
  0xc2cb585ee940b208U, 0xcbce2406ffc00e31U, 0xdc223219c940b111U, 0xae51cea9b7c01dd6U,
  0x3f7ff8ca2c36ca4fU, 0x361dbdf5c81c10e7U, 0xa6a249e0a638f90aU, 0xbe81267b4d95a05eU,
  0x436a8eb73df61dadU, 0x9df0416a55095b4aU, 0x57cf3f2fc6e5c235U, 0x2594d3b7377a71a5U,
  0x7a74ed492dd8a7b8U, 0x53f55e0c36a702e1U, 0x51683346ca2b4096U, 0xef3a3dabf237f5eeU,
  0xd70604e6e2092b2eU, 0xecbdff5cc209a6f9U, 0x33e02ff01988e402U, 0xd5405e0307ccea53U,
  0x38c430e97f01df4eU, 0xfe2dce2be0e6281aU, 0x73dc81f946694598U, 0xe0a39812a32c6002U,
  0x3996c95613f9e361U, 0x5005a90aac5050e7U, 0x297842a0db2c27aaU, 0xd91409adde9c3413U,
  0xf04bcba86652d4e9U, 0xfc26e1215b4b5a32U, 0xe7c7b7729ba436e9U, 0xbc14e43e3513d1d3U,
  0x36fcc1d9b9d2b6f8U, 0x380d43c128e39ed0U, 0x638c0256dce4acf6U, 0x3cabc2a35cf02a81U,
  0x38c590cfd46e4100U, 0xd20521e0e9f8b050U, 0x42b6ce2d2c2dcc16U, 0xefc9b96caf28f51U,
  0x6730fccca716484aU, 0x56ffd4a1c133bee0U, 0x814e479df2d90448U, 0x2146d76032a5e4dcU,
  0xd7d5c6f1575a2331U, 0xf008e3a4fb98ee4dU, 0xd09cfeb955caa6f2U, 0x97470a2ae092414fU,
  0x35534a8ef7b41c90U, 0x8feb644348399dffU, 0xbfcd60d438e8ed32U, 0xebd33981a00c2d49U,
  0xe85dd9a604ca3ef6U, 0x1c8fe2437bf6cadfU, 0x5ae75a34415b9f61U, 0x815f22595a9b2c8U,
  0x56c0dd7d08e8f7eU, 0x5faf03a0beecd28U, 0xfdb5357d0677338U, 0xc2be22dc2a1cff00U,
  0x76b23ef8c80a81f6U, 0xc5f057a85b22119bU, 0x112b473581143bb2U, 0x43d5f8b63d0f02c2U,
  0x2f5a023f3c46ae53U, 0x1f18c3d633e5bc2bU, 0x29cdf31745bddc43U, 0x32dab25001f2ae2bU,
  0xce501ef73422b105U, 0x143fddeeaf243627U, 0x661d02584316c868U, 0xd7ce5aaab3c83c20U,
  0xfac000e13b29408fU, 0x341d9b4cf3247b39U, 0xc226076008b3fa02U, 0x8eb28cfc7d468167U,
  0x50b56902026d53f5U, 0x50bbc0a2f16a6c1U, 0x2d480b04cf69e5e8U, 0xcfcc6811197121a4U,
  0xa568009d024642d4U, 0xd4e1d931f85905dcU, 0x3a7f16cf5bc4c341U, 0xe718f7c069b0e21fU,
  0xf1e917fd5fe89761U, 0x10ca30b4230a6c6fU, 0xeb1c00544ca124feU, 0x3f0f08401d4cc0cdU,
  0xc158c9083934fce4U, 0xb3d3070837dfcfa9U, 0x3347113cf60b1181U, 0x29c3dfb04f00061cU,
  0x3c3c59e0b9f2fd13U, 0x2bfd2a243c3333adU, 0xd9fc07c659750d25U, 0xc4dc418c0ce7608fU,
  0x436dad132d7fe409U, 0xd25757e117e74a2dU, 0xcc4f3c67ff17ea9bU, 0xcffce02649be0dd5U,
  0x4cdbfc543b5319f0U, 0xa65f3dd03806fef9U, 0xbf1541f300454f6bU, 0x9079cd2211f391fcU,
  0x1562d4019d14a336U, 0x659ce8392ab94b37U, 0x6dda40eca570eb84U, 0xc2dabf42deb80ab7U,
  0xc7a71ad66a3c28ccU, 0x26678a813a475d38U, 0xd4cbb6ba3c68cd40U, 0x304abd3b0e81c1daU,
  0xc01c228d06a50daeU, 0x56f1bf3d0304c13fU, 0x21cb2f5332d85609U, 0xe02f5769a58e592eU,
  0xc8e234d0fe0c3756U, 0xc22506fd962cc1dbU, 0x17ad2838c7ee9ee4U, 0x46fab49c3e1af9fcU,
  0x4df840a61164fd67U, 0x30c18e94cb1fa8ffU, 0xf6d6c2fe1a401934U, 0x4346ece05e0ecee8U,
  0xd7a934545a1281c9U, 0xf8b717c9b9e50698U, 0x9cb316cbc238dce2U, 0x58caca08c80bd13fU,
  0xd1d7570ce6f81e0bU, 0x5bd254130a0c07f1U, 0xa0091deea957257fU, 0x2942ef24b899281eU,
  0x15d44eb5241e5c2aU, 0x98e116cafd37edc6U, 0xd609c6f72d008fc3U, 0x8dbe2e62f964f781U,
  0x5d0c44a31af0ee11U, 0x430f3efeefee4209U, 0xc5e5dad13f43c429U, 0x543d501f82da83aU,
  0xdfcb57e68d477145U, 0x25eab21fabca25b8U, 0xfa440815f01af8adU, 0xf5c711c6a01b4931U,
  0xfd53ecdb31b4bc5U, 0xaaf6d73827c713afU, 0xf47cea1ef806d09dU, 0xe637f3c811cbe0ddU,
  0xfb3f1123e71a0661U, 0xbf7f49e6df26d2ecU, 0xfffffeca00001668U, 0xbed00001dabU,
  0xffffdda900001597U, 0x15cf00001803U, 0x1fc2fffff039U, 0x439fffffb94U,
  0xfffffab3fffffd30U, 0xffffc6f2ffffe88cU, 0xffffee87fffff549U, 0x1f9cffffd15fU,
  0x3b7300000376U, 0xffffd50300002271U, 0xfffff375fffffde1U, 0xffffddd0ffffa515U,
  0xfffff3550000197bU, 0x123900000d27U, 0x505effffd4d1U, 0x3ffffe6b9U,
  0x201ffffffb5aU, 0xffffec55ffffdacdU, 0xfffff3e6fffff9a7U, 0xb3fffffe945U,
  0xebeffffc453U, 0xfffffc840000029eU, 0xffffe72affffe6a5U, 0x124000000833U,
  0xa7cfffff56bU, 0x12f500001699U, 0xffffdd910000056aU, 0xffffcb6700000db8U,
  0x2853000006efU, 0x124d00000925U, 0xffffc8d9fffffa58U, 0xfffff092fffff7b1U,
  0x138e00001252U, 0x1d7dfffff953U, 0x15b8ffffe6f4U, 0xffffb8b000000c54U,
  0xfffffeca00002629U, 0xffffebc1000001f5U, 0x1ef7ffffff36U, 0xffffd552000000b1U,
  0x1994ffffee36U, 0xffffe0b90000028aU, 0x1b63ffffe12aU, 0xffffd76affffdc83U,
  0x76000002f8U, 0xffffd80800000a06U, 0x18e1ffffd23bU, 0xffffdc470000290aU,
  0x408300001fefU, 0x21ea0000143aU, 0xfffff95700001c78U, 0xffffdd3600002268U,
  0x1166fffff264U, 0xffffeb21ffffef90U, 0x2a90ffffed50U, 0x19c80000088bU,
  0xffffe9d6fffff205U, 0xffffe954ffffe959U, 0xffffd8a6ffffef58U, 0x15ffffff758U,
  0xffffffe5000022a8U, 0xf7f000005d6U, 0xf6f77f7fc07fe8e3U, 0x7f0f75276ae9049aU,
  0x5902117cbf17f95U, 0xd5d7085c76d127bfU, 0x3a32a9aa31eaa5d2U, 0x2b9282e5320df081U,
  0x1eb603ab797f027fU, 0x577eb7faf7fdb27U, 0xe1f0b646c0da024cU, 0xc27fb100c738f9a1U,
  0x4792f006de7f4f6dU, 0x7f7f868d8fbeec08U, 0xf81c9cafef3bed10U, 0xf47f2e042ae7727bU,
  0xa23ce5446126d42eU, 0xc2675dd48232b673U, 0x79160d3817e5374U, 0x1ffc48814d5d288eU,
  0x7f81d6102ed346b6U, 0x5c812214847f7f9fU, 0xf42424ac0ae681dbU, 0xe74ac6ecd903e76U,
  0x818f0f5441a91e2bU, 0xd2089a682e63bb2cU, 0x7f9feabe811d7f31U, 0x35eb8181b9b63a85U,
  0xe19cc4e740063c50U, 0x1f2bd27f8a0668f8U, 0x8204f71872280c1dU, 0x7f227f1150e8e0ccU,
  0x817f35dc0fd1efa5U, 0x538b381e47f3b0cU, 0x7f02327e2ce3dde8U, 0xf14581e4f70b2f94U,
  0x421c3cfccbf9e6b4U, 0x7f74007f28dc1511U, 0x810de2a317f1b6e0U, 0x81b30e5bf69e81bcU,
  0x21c043980722fafaU, 0xde81ece36b8881deU, 0xc21ceb8bc5e85c81U, 0x193982d7f7c4d91aU,
  0xfb9dc23bbd16bda2U, 0x58ec09d17f293bd4U, 0x7f36b448371dc329U, 0x22d5e4f5743c8518U,
  0xbcc181c14cb681eeU, 0x7f25b0f77f2a3d38U, 0x5060e99cc252fb4eU, 0x44e2df650ae0d4cbU,
  0xeea1fa74eac92c9eU, 0x499325362ea6274cU, 0xe0e9e6ee51fbc896U, 0xa81d68cb914deaaU,
  0x10c4abb68938bb1dU, 0x4e5ef9fce9ab03e8U, 0xc6dfc39f363bcbd7U, 0x7f32ad6bb28d7fcdU,
  0x31282cd0fbf5fd3fU, 0x25201ffae0f65613U, 0xbb5458c807f2db93U, 0x78bc92661ab7b9fcU,
  0x287316657f81f60bU, 0x1f7f4bdfb67e35e1U, 0xe3eff61f54011800U, 0x657fd64ab922dc2cU,
  0x2f0c5a2fd17f2431U, 0xb8ba36098bde06c0U, 0xda7fe4dc0d20da33U, 0x4bc64bb781f73d91U,
  0xd3c2bfca12b0f933U, 0x819ebfd1e063721cU, 0xb03d1a81f30544afU, 0xd505ea594d8ff0efU,
  0x7f0c0922b34dfdfbU, 0xa92deeddaed97f24U, 0xdb0ca98125000d9bU, 0x276c24817f7f085aU,
  0xdc0f3dbf05e444cdU, 0x53c2ba7cb41b5aU, 0xc47f2790faff7f81U, 0xca37bc4981a3f06aU,
  0x45f15dd5f927bd36U, 0x59258bf932bb3be0U, 0xccdd0fef077fad81U, 0x4dd9af0f8d0493d5U,
  0x1ff9e8b179e727abU, 0xf8c681d57f3cbe1dU, 0xc5b6171d3147c2edU, 0xd2da8957e5abf41cU,
  0xf3c581d03fe68f2bU, 0xbc447f63dc981681U, 0xbfb4d4f781d781adU, 0x3e0f4a33c6f196b6U,
  0x5a2320e7c7f492a6U, 0x3a8db503c2ad5dedU, 0xae2a171757510c48U, 0xf94087dff656ca00U,
  0xba6a7ffb81473bdcU, 0x97b10bd7b5aa6881U, 0x9f2e817f7f0c0d9dU, 0xeb07f08847818b94U,
  0xe57fb981810ef9daU, 0x175d8e1bdd27f020U, 0x3e81f93ed80e14f2U, 0x15891bfc7f99ceb9U,
  0x11624ddb81061cd6U, 0xa54794925fdb38ffU, 0x31742e9caf50581U, 0xf69cca42bbea20e6U,
  0x950b3aced0d12781U, 0x886bfa6115c9967fU, 0x16f2fac825c544cdU, 0x4dee7206247f81b6U,
  0x362b197f31cae57fU, 0x36be811182a91d30U, 0x3bbd06f1171505c8U, 0xfda07f81ab4992fdU,
  0x71cbc4024b4b40aU, 0x9ca2fdecad397f7fU, 0x24112126957fb4e3U, 0x8e33d4d661d76869U,
  0xfd7f2c8ccbd48181U, 0xbe404dcfd8de02d4U, 0xfa6759eb9e7f0cb0U, 0x35e4ddf991e84744U,
  0xb7f9537f3e2df0b1U, 0x858186d3da8116U, 0x4490f12aa73030bdU, 0x22119647b5e3ed7fU,
  0x18c9204fc1d812faU, 0xdbd6e713812ddf47U, 0x88e02c49feba0ffaU, 0x741e44f1b2dde0baU,
  0xe0107f429331812fU, 0xebffa7dc9b5820f4U, 0xd10a7fbff812d1c7U, 0x3d32fb53ec811e7fU,
  0x8d39f81a81104f3U, 0xcdf4f7aa8e81b6a0U, 0x217f81dcba41c938U, 0x27a5dae811ca817fU,
  0xdfe7f0630beeda3fU, 0x21fd25b96bd53b39U, 0xfffff0dafffffff6U, 0x6b8fffff3d9U,
  0xfffff23300000188U, 0xfffffb4800000191U, 0x9ae00000791U, 0xfffffff3fffff638U,
  0x5b7fffff78bU, 0xffffef03fffff08bU, 0xfffff3a900000aefU, 0x901fffffeb6U,
  0xffffec77ffffee31U, 0xffffeead00000809U, 0xffffed9e0000089bU, 0xfa800000ee3U,
  0x56afffff1ecU, 0xfffff7cf0000121eU, 0x1643000014b3U, 0xfffff031fffffe62U,
  0x62b00000905U, 0x1036fffffbc3U, 0x101f000017feU, 0x14aa00000d42U,
  0xffffffe900001125U, 0xfffff5c700000dcaU, 0x80efffff77dU, 0xffffff7700000139U,
  0x2d900000e51U, 0x52d00000ad2U, 0x297fffff3f3U, 0x1f2fffff00bU,
  0x17e2fffffdfbU, 0xc8300000047U, 0xffffff6a00000cd1U, 0xf23fffff3b0U,
  0x11500000de2U, 0x52800000c3cU, 0xfffff40f0000013dU, 0xffffffbd000021d3U,
  0x1c5cfffff910U, 0xffffffc8fffffaadU, 0x68200000046U, 0xbb1fffff77fU,
  0x75600000b6bU, 0xfffff493000009a3U, 0xffffee9700000c96U, 0x15a300001170U,
  0x2160000092bU, 0x4cdffffefe4U, 0xd0f0000162dU, 0x900fffff724U,
  0xa2400000bedU, 0x76ffffff01dU, 0xa67fffff0d9U, 0xfffff995000000cdU,
  0xe7fffffec7U, 0xffffe9d300000163U, 0x933000010afU, 0xfffff08b00000cb0U,
  0xfffff5cbfffff910U, 0x1858fffff256U, 0xfffffccfffffee38U, 0xfffffe1cfffffb9bU,
  0xd20000012b8U, 0xfffffca3fffff29eU, 0x49aa9eb9b1b25edfU, 0xe7143d1bc96fc4b8U,
  0x661bd4c7ffa785a2U, 0x4ab0e2c9ca43d0bdU, 0xc9d92c2ce522d740U, 0x8e64469f9ee0ed0dU,
  0xa2220bf841b9f9f7U, 0x8fa4b3d37afded81U, 0x338313b237c553fdU, 0x99c354de21e34c46U,
  0xd43dfb3f433faaf0U, 0x36ee434a545841feU, 0x72f2ef53a8030df1U, 0x1bfe2b3a5f28982dU,
  0x5b07993831c9f631U, 0x2dee4cc2ed4beedaU, 0x6056e2d53423b4dcU, 0xb999d0fd185745f0U,
  0xc011ec4be4da3d9bU, 0xbde540f54e11f068U, 0x20d0d8c72527632bU, 0xc7cdcaf67fc44af0U,
  0xff3f120ca938e31dU, 0x3228c11041cc21a9U, 0xe4ce312faa29ea24U, 0x42dcb21e455ebf0eU,
  0x372e26c759de1d16U, 0xff4b9bcbb86ffa41U, 0xeec9055d544ceabdU, 0xb6d76fef0ab03718U,
  0x783a262db2e87550U, 0xb7b753a0d82fa386U, 0x3b42aef1432605b0U, 0x2a4041bdb2b4d442U,
  0xdc421931a8eab4a7U, 0x3c50c40819a76559U, 0x9b59abe1ebcde8c5U, 0x2dff3ee5d1c7d79dU,
  0xbf06bc601ce7a501U, 0x4bf7fd022fddda64U, 0x180de1cd1d7f5348U, 0xf11b41cae8a1e140U,
  0xf5330d094c46c1cbU, 0xf738e7d3a1f20cfeU, 0xbee5f924b2d1ff47U, 0x3b03a51c044ef2fbU,
  0xd43b6053f10ef1dbU, 0xef595de01ef84569U, 0x40d5c3214bf02ee8U, 0x2155e0f418eb10b1U,
  0x44f0225f04c6c2e1U, 0x184d13d0222b70e1U, 0x5d5deddd461d00d8U, 0xacda7f9a447b143U,
  0x53d121eecb171528U, 0x7fbd50df37e527faU, 0xc0e35a5ebe122523U, 0x31d038aeeff91015U,
  0x2f34afa5f517e1b6U, 0x468c506d0f5e332U, 0x7343ecec9bd42f7U, 0x7b054e29e45b7d1U,
  0x4f07c1620ce3269fU, 0x3d6085e5ab1e341U, 0x22f8afad555cd3e9U, 0x23450a9734b2cf5eU,
  0xf86b962d2511f5ccU, 0x283e2f35e143cc35U, 0xe2123584321ffbb0U, 0x25e9d631e6c9b1c3U,
  0x33ffb5e4c45803afU, 0x64e7aea0f4ee2b5fU, 0xd622aaf742000006U, 0x4aadff5757f757a4U,
  0xe2054f25e7fbebfU, 0x41b80f9e531d176dU, 0x429c4ff7d30050b8U, 0x1a821ae3dfb3799U,
  0xc358c9c13df4c735U, 0x152e5a13e04ad027U, 0xf38fbf0a50af22bU, 0x8aae0426e51eacd2U,
  0xd01ebd3f0c1d1dbbU, 0xd1c64c06102a3a48U, 0xea3cf60d38ea3ae5U, 0x3bd70c43e71adee2U,
  0xd43129fd1ba9e1caU, 0x16e7c25cbdc41ccdU, 0x34ffd70ce848d435U, 0x10024842cb5db8b7U,
  0x52424f3380cf0b1U, 0xf8ddc2e36cab8126U, 0xb3c20e44031b6bdfU, 0xb8bef23ca014cbbeU,
  0xdbf34613151b39b6U, 0x4a43fdf1b7012c27U, 0xd34ae49b17cce0U, 0xeec97f4dd21033a0U,
  0x111b273847aad7a7U, 0xbd8938ca3d7f9ed0U, 0xfc97bd0af06530ceU, 0x27a224f8d79a0c22U,
  0x59fdbe5a56f0b321U, 0x84f5cd9c7e732bcU, 0xa167c80b524e1f0dU, 0x5d3faef1d24b9ec9U,
  0x7087aaa7edd5a650U, 0xaee0bf3aab6db1c5U, 0xdd20ddc5b9fc1546U, 0xd4c22319ff9e16e8U,
  0x5bde7b38a2004752U, 0xcce4b2e23d233ab3U, 0x4e8ff7a6463a77ddU, 0xf7a2c10d1a520955U,
  0x3a2fc0b621491423U, 0xc8afb5aea84b1cc5U, 0x5e1c1f312aba45ccU, 0xd85fee0dcbe8d251U,
  0xeb14fab01befb9feU, 0xef8f3ca160075f22U, 0x35444fada4c9d00U, 0x3c3a02f67fabc70fU,
  0x4426fc4047bea845U, 0x9ad1021ad9cdd3bdU, 0x1d12ca0ee6f67311U, 0x30a2db1003394351U,
  0xf14fcb685db5cb54U, 0xfa68a57b29f738f4U, 0xdde70ed7f70beb1dU, 0x652650cecb34fed7U,
  0xbe1708c7c737d4c4U, 0x7a8b40cfdfe515dU, 0xcc28234339ca0513U, 0xbe0315b6f72314d6U,
  0x21273428be9ad7d2U, 0xdfd00e03adb3ab23U, 0xbf291cf3da3759e0U, 0xca50dedfd62ab467U,
  0x357f5b410a06c100U, 0xf33dd450caca26f6U, 0x1cd5bbbffefaa815U, 0xcfec0ceec3fb04dbU,
  0xb51ede4cc6c511b2U, 0x1913e4171b3d1140U, 0x3c5a3d40b5b422f7U, 0x32fa0d59ee0cdef2U,
  0xf6de4e6a0bc304f4U, 0xce21ff64d2ab6c1eU, 0x5c1908e6c350fdc2U, 0x61253c909abca71aU,
  0x30ef3aabb8475726U, 0xe9de923227145ac9U, 0x8f3475b93d3c90d4U, 0xfdc0f03b3d164b8cU,
  0xc8b9f9116a1c64afU, 0x367b6fd48daa20d2U, 0x815e38554405b4cdU, 0x4659430b2b1d03feU,
  0xa6d4297b4c8ac6abU, 0x39e33e35fd301d65U, 0x4d2b1e28244ce10eU, 0xe2015e3946ceee13U,
  0x351df714ea08225eU, 0xacfcb1082c813660U, 0x490ab0f023c8952fU, 0x4338c0210b2b4f29U,
  0x9c4e5fe1d1ca701U, 0x575bc99de5eee33cU, 0x30d682f34ecfd2dU, 0x72fbc31d3eabd61aU,
  0x24e0faacfc125cfU, 0xb329f13909f14444U, 0xaafa5a915e061711U, 0x48bef3e5ee1691a6U,
  0xaa181750f40c0517U, 0x2ec30a11ef293ef1U, 0xe7457f37ce4554bbU, 0x564cc545ee1a29b2U,
  0x39e3f337d523e02aU, 0xfaa74e1aed4c58f7U, 0xc4f84db1ea140960U, 0x3c0620420b0b15acU,
  0xda36f4e14af920f7U, 0x45393f4d44224420U, 0xf934c2e3de28cd37U, 0x7d707f4ed2e2647U,
  0x162435c8bb2a1432U, 0xa948d33ec9f52fb3U, 0xb7c9d323e5ceb53fU, 0xfa2b0eb501274645U,
  0x4ce90c0fff301b4dU, 0x3de641264f032426U, 0xd16dce90e491239U, 0x20edbb5da3dccf16U,
  0x3510b00f50c0d861U, 0x6a7303941bbac8bfU, 0xb6cfe9f3c057b538U, 0xe757ea5829553bf5U,
  0x8b708c85c539fddU, 0x2f9310b8b747c32fU, 0x25bbded23d498b2U, 0x68812c52aa46773bU,
  0x2af6a5b9e3d068c8U, 0xa2d15b2e1accb83dU, 0xc52fbb0f7dc2e2aU, 0xd1f5bdffae6d1a3dU,
  0x24aaeda70b11a8eaU, 0x642200d2e3faddc1U, 0x40e5d1ef4f25513eU, 0x3cb46311cbc726afU,
  0xd757c1b9aaeb3aadU, 0xba3dbe46694c14e8U, 0xb6a5132e59ed60d4U, 0x13d326d63cdc4d3cU,
  0xd0281bf26310420U, 0xe53b99f9ac24e450U, 0xae5a3de22af0f73cU, 0x304319b0b326bcc8U,
  0x340eacbbba1eef74U, 0xf62efe3029c2d25U, 0xd02ace0cfaf74b21U, 0xd9fad62935d3ccc2U,
  0xf446b15f24f10a34U, 0xdfed55e7055addacU, 0x493befc1e7b3fa73U, 0x432c177f449d24d4U,
  0x5baf8a0db35abbc1U, 0x22a73c6b274ae4acU, 0x18cddae95ca906f7U, 0x773f1518319b17b7U,
  0x28f2f9cd33c9e7ffU, 0x9337ab3ae6509eeeU, 0x14a57c40a3e2a20dU, 0x7a59013aa994202cU,
  0xb2c8a1fc321fe8c8U, 0x4f94538e03afbfc4U, 0x122b9aa9c20339bU, 0xf38eb4088269e418U,
  0xee2d98b2ad1c114eU, 0x60f18911ec615a5U, 0x1ed2c4d556f2b3d4U, 0xba023d023fd0fadbU,
  0x503162f1cbe3462U, 0xb0449cfde483dddU, 0x372b2042340b01a6U, 0x189d20acfbc3f20aU,
  0x3b2702e8b3cf3242U, 0x1609bee4de451844U, 0xf9252be8481aace4U, 0xfbcc66d11b2fd2f0U,
  0xd77fd0bea3d11bbbU, 0x3dd02e4a3ce940cfU, 0xf0e72bd0260bf7c8U, 0xb4e44cca1d4615e8U,
  0x23a742ccfc1603e9U, 0xba0b300dd6b9c543U, 0x1f42b9f0130dfc2dU, 0xaa18413cf1ebdaddU,
  0xf1ab82a933e905bU, 0xb1fae4f6f5c6cf2aU, 0x2cb410bd7e9bc4fU, 0x334feb1dc24b9ac4U,
  0xc3d091ff40348c9U, 0x5318df3a33c1b3f9U, 0xb4ed3534e407e3beU, 0xbbd51ed642480bfcU,
  0x48340606d7000f98U, 0xe381322cbad2eaf3U, 0xc12f0ff39eb99ae0U, 0xc2ff0bc9532af433U,
  0x211017f5d8c935c7U, 0x7453fef044c4e999U, 0xddd24b1949be473bU, 0x2e453ae5faade9fcU,
  0x5ddff2e6e0e924b0U, 0x2501074756423652U, 0xcdfa0d47dd15bd03U, 0xf2beaaff16263af3U,
  0x41f79d14f0013a2eU, 0x311042bd49b5eed8U, 0xe9eaa71b6102cf24U, 0x3cd3f6c440f4fedU,
  0x34be4b2bae08e31dU, 0x14e60fb481cc5c99U, 0xea3be4d31ff300afU, 0x9b48f8a3ecf2bb0bU,
  0xdf1330b5a60302a1U, 0x43ef55b8cf41beaU, 0x540f2a54462f30fbU, 0x4bd0b7ccaeb906ccU,
  0x8e7d3e7332f36f5U, 0xc629a021d1fbb6f2U, 0x21e22914016d3fU, 0x2c09cdd537f0bc50U,
  0xfba0412b2fb3373fU, 0x58df0b0d52ec1938U, 0xae09b189b2f3f110U, 0xaeb630f73f02b013U,
  0xf4b314fa4b810f0eU, 0x421b0dc94107a22fU, 0x31371feb1a284e53U, 0xe4fab3f8b8c2a2b5U,
  0xd4b5cfad1845c9fbU, 0x30bd331fca3930b8U, 0xd6ea4b4a8cfb33dfU, 0xc4eb19d55c5a43feU,
  0x374a4059ccd52a05U, 0x1c41deded1141bd8U, 0x2343eb9219ff73bbU, 0x41bb2236bfc21fdbU,
  0xa62d45baa840f7c1U, 0x1f747ade7d00dafU, 0xbe10ceddfbbcc053U, 0x2bc2b4ffa9bc3136U,
  0x634196e8c5ea19ecU, 0x19f1ba1a08f5023fU, 0xc203565799181efdU, 0x2faf0fc047f21842U,
  0xe2d3fef1ca5adeb4U, 0xc8adbd8179c59366U, 0xf9514a24b439ab21U, 0xf9f053fc0eb60f12U,
  0xe1fbf960d802b636U, 0xc11e341836f2be8eU, 0xf0a9112e0f32a8baU, 0x5defbeccf5452327U,
  0xcc4e464fc10e41daU, 0x43d8cb520408484fU, 0xbc2daca9a73a004dU, 0x4b163ca811e155c3U,
  0x891afe1bccf6dabeU, 0xc4b40bcb55530fa9U, 0x7da33d3cdf6a6eaU, 0xfbe85e08baead8e3U,
  0xda00616cd3c324d2U, 0xd30504d2327ffa31U, 0x8fdd6c7bbbec656U, 0xa2d02d2bdfffcffcU,
  0x11f0339b445470b2U, 0xd4a49cfa0a54042fU, 0x852c1fbe1b7420e8U, 0x15e5e91d35121cb2U,
  0x4b9b41d0c2dcf631U, 0xfc13d0bd7d3ac969U, 0x20db278153d673f8U, 0x47ce5e0f1cd21332U,
  0x379edce6e9d24209U, 0xe3fd3648f5234f1cU, 0x60c7cdc2e4520874U, 0xad93d502c65c30f2U,
  0x85c8ecd7a5b40034U, 0xf37aeb054f5a08cU, 0xf3db0c59b33dc62aU, 0xd69f45ca5f489d34U,
  0x1113cafc20c56400U, 0xa4c90901ccdc09f4U, 0xbd518f381ae7f747U, 0xd02f00223d265583U,
  0xddbcc2a2912f667U, 0xde359668cc01074cU, 0xb000815a52df4353U, 0x37a17e4af10725c2U,
  0x60158bfef26d1U, 0xa85cd6dd0ecefa2aU, 0xa20a0ece21bf5cb7U, 0x107935152f554060U,
  0xe01b00ea755d4a06U, 0x7485db12ebd8cc0fU, 0xb032fa2a1aba2449U, 0xdba0d5f0d5639e81U,
  0xca1568330fffebe4U, 0x89c46324e3e1dddU, 0xef0fd50fac56ef67U, 0xcc6a0061efdd303dU,
  0x87498345e3731a7U, 0xb5dedb2bdc502cdfU, 0x722ba2d7ceca3c3bU, 0x2ce64f3a4b4f21c4U,
  0x155c7523140bdcdeU, 0xcc7a1d80bf71530U, 0x2a1e586bd3fa5424U, 0x310b1adf4519f8d2U,
  0x357f417641c17f4U, 0xb07f6aaffee572aU, 0xdfb1ed9ff92c5168U, 0x15ad8d5c980a3214U,
  0x4d03cebf7363a460U, 0xda3444f84cc2dafcU, 0x37e65388fda837e0U, 0xc9ba50e8563ff7f3U,
  0xc654fc061cad3728U, 0xee7150f9cb089f3eU, 0x26367f373a423cd3U, 0xa24949322f07706aU,
  0x505dc0f041f437b1U, 0x8757c0df35e952e6U, 0x3118ced9d08d0f29U, 0xd6151eee1ce5e608U,
  0xbfff77fa25665cafU, 0x5d0f5f3613d329d8U, 0xc4a2ec8e5cd44a6U, 0x501159302e142692U,
  0xf7f9c5a8b22b8271U, 0x32d9f23ce07759b6U, 0xe330920743495708U, 0x7360d4ccc2e348c3U,
  0xe1f405e0cc833d3aU, 0xfe15919db13f1adfU, 0xf0edec552c9f54adU, 0x3d322205b1abe62fU,
  0xa6a90daf5a0ae0fdU, 0xc098d7f2a1c63debU, 0x944dc1de0b2a44d1U, 0xd2adac95aae819bU,
  0x27f8331647ace6e9U, 0x2ec2c50c83551e7U, 0xe3e0f233ae092cb2U, 0x33f30b40f92e48ceU,
  0x47f53df316d54411U, 0x31281b3c0fe01249U, 0xe9fc211acc98521dU, 0x503d4f1f57c5d011U,
  0xc61324bedc01c467U, 0xbab895e70f0e0879U, 0xd1f6f3bade5b25f7U, 0x37d9ddd5ca12fe05U,
  0x31ebecd4c440e8e6U, 0xdcfb16f6d5274128U, 0xcddef9d73bad540fU, 0x32b4bec3bbf305c3U,
  0xd2b4c7cc01d02b9dU, 0x465b4b7fce1e5861U, 0x3b04a0ac16d6a833U, 0xebf42dd031d919c8U,
  0x2c5193dd002646b2U, 0xe758e7c97fe6cc3cU, 0x9000d21c5a10f1eU, 0x4c26ca5e073755c8U,
  0xf3d31936fc4f3fafU, 0x1ca116c2391438fdU, 0xb2999abe45dfc832U, 0xb8d0b6bb89bc4bdbU,
  0x23894c75eeced4d4U, 0xcc3a08edb12d0bffU, 0x575c59370ab35bc6U, 0x161c0141bb010a3dU,
  0x3b0dc39ea29cbc3dU, 0xfbf892260db09919U, 0xf7e28ba9c911e97bU, 0x3913fbe52c2fc4eU,
  0x5c5a16343f93ff2bU, 0xf448ef95e4603adcU, 0xc24730efaf37ed9cU, 0x9632b84eb928f87cU,
  0xd505200ae4b533c3U, 0xbc99170de8c5dbe2U, 0x58a20338c960055cU, 0xc8f1c63445a7f613U,
  0x4d748c72fed3219U, 0x2ccdf1a067f4f42aU, 0x292007b1d52147beU, 0xe41b77a40a21c1f2U,
  0x81971732b42ab0caU, 0xadbf23bbc468c4fbU, 0x356a51a0b6bc0b27U, 0xab045b5aaf1942e1U,
  0xe2a2ff0e0a1f7ecU, 0xc4c6e40dfb674505U, 0x8df52ef18e81b42U, 0xafb0f1533ee93232U,
  0xba18b284549c904U, 0xbdfdec43d7061d72U, 0xe947f4e903de2845U, 0xcee343cb09273404U,
  0x81bad4e61322090eU, 0xc39a41f856a869b3U, 0x7a1dc72d53e08c8U, 0xb5c7719cd94cad4cU,
  0xe6e60e48eb33464dU, 0xe2ba0bb4c31fb325U, 0x42ae51145ad6eaa7U, 0x34f9ffa3e53c5648U,
  0xf3be8fabeefa99bU, 0x3ad9b4e9e1b2fcb2U, 0x9dc0d729f7186363U, 0x813f20d090d1e2efU,
  0xa111cbdfe4134129U, 0x8dfefd8c6d18e719U, 0xa405a21bf03737f3U, 0x4b4ed3950095f9f3U,
  0xcdbd530f0e9caefcU, 0xa8e7466489b6e272U, 0x526bb33ebc09f03dU, 0xa041ef32f1dd1603U,
  0xff0e12a155015abbU, 0xd93a083dc68d4b18U, 0x47233624edbafb32U, 0x22d52c04e62d4a31U,
  0x2c5b2101acb6ef0eU, 0xd066173107b251caU, 0x12da58c1374e1803U, 0x1cbc4de7e71be146U,
  0xe8163aeb58b6162bU, 0xebe7f5002f0f06c8U, 0xc3243403ac50ea41U, 0xb954cd01f0db004dU,
  0xda051b222a272f19U, 0x2a1dd84206224fd7U, 0x1de8434e14cebf41U, 0xb80c7f0b12ca471cU,
  0xbbbeb5e2b4473bd1U, 0x35319fd736c92a28U, 0x48a033d7925b43d7U, 0x71ee6c0e6d334caU,
  0x48e31c32a6dfeeb1U, 0x514624b94d3e29d4U, 0x3fa1a528f6bc383eU, 0x2ee5d09e3dfec1deU,
  0xec69014430cca804U, 0x930308d2bfdcf51aU, 0x70c5de012ef3c3bbU, 0xd029eb5181aff951U,
  0x13fac800e50b0e9aU, 0x1f4a32a7b231e0abU, 0xafd9709eb70bd439U, 0x3bb61c001ddea5ebU,
  0x12d99b34043ce925U, 0xb8ce03a8628de631U, 0xd84114ddcead36f6U, 0xc63b2cca00453011U,
  0x28fabc322e1c58dcU, 0xaea74560b75b0de0U, 0x3f0eefba2a3e2941U, 0x38b3fd034c32d549U,
  0x26c5d704b232cba3U, 0xd202101dbdd1d821U, 0x2fac92ce3f01bfe5U, 0x9c27c1a6f06381b8U,
  0xc6be04b2e44fcd05U, 0x64b9d6bb2fa59ec1U, 0xa8fedf174bfcd53cU, 0xd416e1c6a6a0401eU,
  0xd04948c829a58b0dU, 0x1c04d9c7a6e1d5f2U, 0x461512172a3bd18cU, 0xeac444a40d1fd2a0U,
  0xd45df6c96484c0c6U, 0x1d648382d13f947U, 0x508af6a1fc9ff7e0U, 0xe10bcd0bb339d655U,
  0xed33d507e716be4fU, 0xf8d4dd4504b6b9a4U, 0x1f07a7affbfc8a41U, 0x332b1928904c3ecaU,
  0x26f922e1a7cd30e0U, 0x3874129f44188c7U, 0xd4cd4bbe101448a0U, 0x8e198c4381f33622U,
  0x1dab482a3ec4d84bU, 0xb9c63c1d52f3c318U, 0x200227c00172cbb3U, 0xfad13f55098251c1U,
  0xb3331f8bce9dc211U, 0xecb1d620986604cdU, 0x4f2187f03a1c8feaU, 0xb4f5139f74271dc8U,
  0x9e312c33b896db71U, 0x407452a5c679d100U, 0xe10da602bdde8d75U, 0x524cf71640c0d8a7U,
  0x3dce9d1c42fc0517U, 0xbcb1da821b1022e4U, 0x2e4ecb1bf414d511U, 0xb81f81aec2952a4fU,
  0x116638dfa05e1920U, 0x1a29fe143d10cb1bU, 0xd3b81404515b9e7U, 0x9afff1ca1e1615ddU,
  0x92bd5e9046dd4d2fU, 0x161fd0f3e65f0fcbU, 0xa0a3e7b026b4c444U, 0xcdd8d1782a2afc05U,
  0x856a26d8bde852c1U, 0xde12b2ba3fd09ecU, 0xe340b5c32ba53f00U, 0x5a15d1bd91c803b6U,
  0x95e4b934bec4f828U, 0xdc8893dad7ab2d9dU, 0x70c2c8dcb32b973eU, 0x342261e1e4a7b9b1U,
  0x62bef2b6fd260a23U, 0xcd1690b5e63c1fa5U, 0x56e653b4d1330a29U, 0xc022bfe3fbdbbe40U,
  0xd6002402f543dbe1U, 0xfe331f19f56a76b2U, 0xc5e8d8b7cd031d68U, 0x4aec4712ba024399U,
  0x3c16432445a65ad7U, 0x68489c36b5ebca49U, 0x599f18209fa966eeU, 0x49faddc00ee24a36U,
  0xcd9224eabde1c7dfU, 0xabe9e64c9db8dc81U, 0x743eefe26d0b64eU, 0xc3172bbbfa2443c9U,
  0xf5588b22d4eaf60fU, 0x44625004c51a05b4U, 0xefe44c3e9d1eead3U, 0x120f2e39c024ad49U,
  0x3122b431e6f3f0e1U, 0x10e82808ff1b611bU, 0x4c54092e04395d1bU, 0xc7c3e4c73ce1c1f1U,
  0xd6a020436a142dc3U, 0xb1f93445423c480fU, 0x4da8b6e203d929e1U, 0xdfec2b3630dc7fdfU,
  0xbede34d158bb2c4eU, 0x1e67b85aacab3707U, 0xf5424ee667db03b8U, 0x39430eed3bfc03a6U,
  0xf5b9fa011db5b3d0U, 0xececd5fa14f2af2eU, 0xd03660a70c9b2e51U, 0xbeaec21414b11dedU,
  0x6e11cfd7f7ecdd1cU, 0x2d4fe54c07fd9f3U, 0x3d1cbe0120350848U, 0x4b2ebc43a8fbc4ecU,
  0x4b4bb215696d1af0U, 0xc3164cf72b9cc956U, 0xd0e1212fb1952cecU, 0xe7cdbb4f07acf5c7U,
  0x6aa62da056d04c2aU, 0x52181f1c9639f4abU, 0xaee3ade3544f936U, 0x164efef9b5fe3532U,
  0x2d334be3ac4d00baU, 0x125625e936b96560U, 0x42a935aa27fdf6d0U, 0x59eff8bb5ad5a9c0U,
  0xd62234c11ae01bd4U, 0xb40520dbde03a629U, 0x5c1ecaaf3ce97fa7U, 0xfcaeccd94af6dbc7U,
  0xf4b7b4d3fb19d8c5U, 0x29d3fb6043cded31U, 0x5fc7181748f9e718U, 0x63f3d6bcb9cd450dU,
  0xb84d09ec26440a14U, 0xf728ab3cd8ef0739U, 0x4322d03d1aa11ba9U, 0x2b0f64356faee5b4U,
  0xc8c5e6a91355dbe9U, 0xed43ba17d530d5c8U, 0x353518de4e38eb22U, 0x58a4054cc838351bU,
  0xb838e2015c39ea2dU, 0x150e3ea4d9c852b4U, 0x1d241f2ce6dcdeceU, 0x50f5f03e48374b4cU,
  0xfaea46a9fc2317bdU, 0xecd84f60c33ad4a7U, 0x8e44bca2fd6493aU, 0x4ae3ee44ae1b38c8U,
  0xe12130c4ce66cb7fU, 0x25ff030e042c2ce7U, 0xe2d8dfae18e123c2U, 0x4c552bdf69ad2908U,
  0xd2ec373f3026e8d3U, 0x36151233aee523aeU, 0x8b6e1140249aea05U, 0xb0092630936f2fbbU,
  0x1d0402e235cccf52U, 0xef0a55a8d9501760U, 0x84437b8a32cb5cfU, 0xd339fd01a139cd52U,
  0xf1e5f64c56b20a4fU, 0x3750db6aa099c8feU, 0xb8dd516c163a5b06U, 0x3dee4700ea6056faU,
  0x3d80dfaaaa225c1U, 0xdcbecc2afddaee68U, 0x8ad72cc7b7cd65fdU, 0x95c34451d9301601U,
  0x692e45ae19353687U, 0x103f25280981cadcU, 0xebb1e6b8f720ec10U, 0xcb563d1ef9f600beU,
  0xafe7a8d710fcf0a3U, 0xb342d31c44112439U, 0xb5e061682cf555b4U, 0xcd112a1a1cfef2ddU,
  0x41b725161f1b370dU, 0xbaf60055bd29d06dU, 0xda2a0a4ce8eefed6U, 0xbcf810b13517c4f2U,
  0x262ab34422b5cc0dU, 0xec332c8b914dc67U, 0x36e3645213b24106U, 0xb4013bbdf8fe62b1U,
  0x18aca5f0a57ff0efU, 0xfcc3e121f7c9f2deU, 0x245440abae50f1eU, 0xaf335f1c09ff8cb9U,
  0xd8ca1501f7d90a15U, 0xb824fe38e8bd34ccU, 0xd7fde0a950a4a1bU, 0xe1f1abd7c2d8de2aU,
  0x2cd3f63845d362b0U, 0x2a1db93cdd1ff2c2U, 0xfb36d9f223cd3e2fU, 0xbcf0191e46a8d4a5U,
  0x39a2e41bfebbd531U, 0x2ff2b4be9659222eU, 0xf151f2400bf0107U, 0xd92d36f4f5f20ffeU,
  0x2a36fbaa4f3c493cU, 0x1b3c39104d29fa17U, 0xca19fcd920b6a5U, 0xb71cf444461a5eb8U,
  0x11a522070ff4eeceU, 0xd4f7f239ddd09db9U, 0xcdbbb1ec328d0bb2U, 0xabfc255a4b3b0444U,
  0x2a22633535f9a13cU, 0x4bccd027e766e426U, 0xc55111669c2c81f8U, 0x44fc6788a1f712dcU,
  0x3ecae3dce9af3aeaU, 0x2946ee0430c93d09U, 0x6f47a73cfd11da67U, 0x3b3aaec3f02b21cfU,
  0xc3eae025541da63aU, 0x4a5a972fe5d9c4c8U, 0x93ef5c7fa2c9b145U, 0x5bedac122c1ec3ddU,
  0xcc112a40d8af3804U, 0xa8dcfab9f91c8f9dU, 0xf4d135d1be1c0b9eU, 0xb004afa4125a50caU,
  0xb7bdd4de3fde3332U, 0xc732ca1a009ef407U, 0x14e98ed6c5b2cd2dU, 0x301d3049d1ca11aU,
  0x289f36294e2c06e4U, 0x39d1a5044a444dafU, 0xe3c8df0d9ed4e223U, 0xdccea6f0051d30d6U,
  0xae2c283d97c5fc0fU, 0xe43bd6948872e855U, 0xf7ee243842392fdfU, 0x4826e8c5e60003cbU,
  0x809f72ece0cb9dcU, 0x27a3251af88bd14cU, 0x13b6bd23fad31521U, 0xd746ebb3e1aff2caU,
  0x385bde2c99c030d6U, 0x1d4b811b17193e26U, 0x204e1c2d30ba3525U, 0xc3181f4909222323U,
  0xd6e02db530dd4b9fU, 0x1057f62fad5e2df1U, 0x52e4ba0dbf33cb98U, 0xe3c521adadeaff0cU,
  0xa307d547384e02faU, 0xe9075f65bbf7f56aU, 0x3a2bc2f529d26b9fU, 0x5be7e1eb1229249cU,
  0x197ff216d6001dc2U, 0x1d2df437e2cb4453U, 0x2b6236c7a5fcd8e0U, 0x95c2d2dec1bd4b1aU,
  0x3ef3b0d155af27adU, 0x1d54105b9aceac73U, 0x2436ae45d251b832U, 0x12a137dc9e569d33U,
  0x5427a9b718db0432U, 0x27681ba9aa3ae0e1U, 0xf5dd50cae645db08U, 0x51055820fb4d3859U,
  0xfbcfd1f80120af4bU, 0xf1044fe8d0291101U, 0x7f0c9b63e8c7d09cU, 0x16d0bdd0370af815U,
  0x1e62a9b4e9e3a9c4U, 0xf4e8f93ea2bb34aeU, 0xa9b4c701b7c9bcc9U, 0xf796fccebdd4ba09U,
  0x17c693a7bc0255f9U, 0x125c4878e3b1b942U, 0x20252f21dfa2bacfU, 0xd7c82aef9e5486edU,
  0xa7dd18b035f130d9U, 0x4f18261df543fac7U, 0xf65217e590932b02U, 0x1238efe4dcf78346U,
  0x86648af245af1216U, 0x974cf9f04395d519U, 0xe3c3e6db8994e8f2U, 0xed543ee528d148f6U,
  0x7faa1c571b5f1b35U, 0x3630c20ca6a90f44U, 0x38232e0b536e4132U, 0xd2642dc71c756708U,
  0xc039c417a2a35433U, 0x1fb843b1e92c33dfU, 0xf123624eda6adbf9U, 0x5752cd289a75f8f8U,
  0x3e59bc69d4c3fdaaU, 0x9506e3dcda4cce09U, 0x24516499d5837fbU, 0x3ec03bf4e93efabdU,
  0xfd4ebcdad91cd55eU, 0x431623c6c0376ca8U, 0xdc56b4ca4cadabe6U, 0x160801a2cfc050a2U,
  0xcda2c032462756c5U, 0xdf6681ee8efb6d1U, 0x28160ef8d4e8eb1bU, 0xc0cee3347f0e57fU,
  0xeb2040264f0a11d5U, 0x3ddd0d42d70736dcU, 0xce15e46163042c6U, 0xa7a840bce9baf119U,
  0x3f3869f2a0535beeU, 0xd8003316ae02db0cU, 0xa5acf29e1b0608d5U, 0xe80c02fb0c24dfdaU,
  0x990e09465cbcc608U, 0xdebb3ec24c1ab539U, 0x3d55ff029cfd252U, 0xcc4c2928e7217cebU,
  0xa1056f54edecc4e0U, 0xfe204b1d05b9ad2eU, 0x538dfa0c047327e7U, 0x657360ae87543a8U,
  0xbbc9a1da02f3d1cdU, 0x32b3ab88e0e2ca2bU, 0xb6531210121500c1U, 0x1ee1dd06d6aaa150U,
  0x81aabf534cc130a7U, 0xad50ded461e6cac2U, 0x1bdbc2bfd20ed572U, 0x9412eee33bcee339U,
  0x4edef0a0db330beeU, 0xe9e0ef1e232a9aU, 0x9e5d039e517774aU, 0xae08143502f9c907U,
  0xc7da0377c6bc3330U, 0xe9c3cbfdf4ec8fa3U, 0xf3274cef56f7bbd9U, 0xf0badf0ee1a8b017U,
  0xc008fb982624d252U, 0x98c504d24f318131U, 0xf5fb3bd91c0aa8a2U, 0x1cc4d115a4220819U,
  0xd4c827decec95233U, 0xc7add3b3b992eb8aU, 0x39cc2537f535180cU, 0xe2fc39c13f85b7cfU,
  0xfa084f1839f5f8cbU, 0x5c2d27f2b2c9b116U, 0xf81de906ec1143d7U, 0xbba5acafaadd4919U,
  0xe82a010ed39746b2U, 0x4151cf45c5dcfa3fU, 0xac8f19af226614cU, 0xa0e0fd0dd49b4425U,
  0xbdebd4d7baf362edU, 0x43f02d452c1562daU, 0xd091fd33cd81b31eU, 0xd937bbbf93ce19e5U,
  0xb49c161e0eda3a0cU, 0x4fd181dfb548d014U, 0x11b1a0526340ff67U, 0x6ad4cefabf2ffe9U,
  0xdfbebbb6f4f63e77U, 0xd9193b3c004c3baaU, 0x24c6ae23d6ddbcddU, 0x1b11c9d142caccf3U,
  0xbecd29d5e939efbcU, 0xda0e1418265627ceU, 0x2000a2b39e45fdb7U, 0x89421e7668bf4598U,
  0x3c3532a9e8f42619U, 0xdec82320f6f909baU, 0xb71f14dbf01b2424U, 0x1c28a7cbc508b4acU,
  0x13b72fce173bb3e2U, 0x478d600f93248125U, 0xdb121a1ffa022639U, 0xe705630c5bace5c1U,
  0x8aac05c7763a2dd5U, 0x3b04d6c1cbe015eeU, 0xabe03d33f55352a5U, 0x3b129498e950ce15U,
  0x2c6465d654469cc2U, 0x8ca9f43b59000bf7U, 0xadf9b2fce4fa76e4U, 0x1054bd68f4a3e5edU,
  0x1ed62ddd07f24c6cU, 0xbdfe68e7a42d0b88U, 0x11f7aa4b16cf4dceU, 0x419f800ee9793d0U,
  0xfc0913493a4dea17U, 0xf3b93430ddb0eedcU, 0xacd5f4c01b3f157bU, 0x275a5c123c6151f2U,
  0x814a0bd22e154885U, 0x59260b5567b123c7U, 0x322254f230c8c6a4U, 0x575af3ccd7acfb06U,
  0xecaa4211b9c13be4U, 0xff1eb1aeef4427a4U, 0xc5137112c6d2074cU, 0xb024b126299d0747U,
  0x3b0bd9949ae652b3U, 0xff1e97004ed1403U, 0xd1b404e750430f0cU, 0xe25a0ff852d2f3afU,
  0x9668e52a4943205cU, 0x3103d5e0cc21f03eU, 0xf7201da40f41a87fU, 0x10c04dbb144409e8U,
  0x1f13cb06b94621e1U, 0xc444b936d52fd24bU, 0x1ca2ff5eef314a0aU, 0x325735400b594745U,
  0xc2f15ac914bcf049U, 0xb7be20fdb4ebdf1fU, 0x10a103210447b610U, 0xa4193f12cc10f002U,
  0xf6bb290c3c515081U, 0x3fe3635d03eb89bcU, 0xe6bdc4bff7edef11U, 0xf4feaae0a4f5141fU,
  0x668d685f242604ebU, 0xe4bfc9550f0aedecU, 0x1b16d84d0fecc162U, 0xb8b326bb501049dbU,
  0x5cf2d1cec19c8ce6U, 0xe59efcaaef0bc1fbU, 0x14d0ab3cd5c82ef4U, 0xe10dc7153321ecbfU,
  0xc075b4f703b4b930U, 0xca0f2ddcfb47f545U, 0xf328b403b17f5466U, 0x1ca63ebc63e6bc0eU,
  0xdd48fa0ddea4dfb4U, 0x17d0eee2991d195cU, 0x14335dce3e492f56U, 0xeadf45b6cef7be01U,
  0xe568d0063bae21aaU, 0x353da9f0bdbae81fU, 0xee2b5af8e5d32ae1U, 0x35f01f213b1911d1U,
  0xf933e3dde40adcf9U, 0x41dc162fbf0cd73eU, 0xdbfe1507280737f1U, 0x2af6030b4fec59d6U,
  0x3241d8355b99dbffU, 0xba6756ab2bd343dcU, 0x33d4b11e7a08bbf1U, 0x3d1e2c9b4abe351cU,
  0x3feca7ea1fdbc76eU, 0xc734bc043856ee16U, 0xeee9c4f53945ddd4U, 0x16683af381a65814U,
  0x6cf9e144382911f8U, 0xe56fed26df760db3U, 0x1dae7afffb956caU, 0xcdb5ee5af8ed2b15U,
  0x4bfd14351ff1ee1fU, 0xe6040b54df0caf68U, 0x60abde90c053859U, 0x9e57281902ec0154U,
  0xbbe6bbc9d439a23fU, 0xb44a270a37c3a15fU, 0x34f3d5ffa8e4fc1cU, 0xa1d70ebffee24b4dU,
  0xe4d981fc1cdbbcd2U, 0x9e1bca430cf7cf27U, 0x7c2c3914b6c9d68dU, 0xdd2629bb279c3fc1U,
  0x3be2e85be0f02023U, 0x2af33a5a2a9462b4U, 0xf40539ff63356503U, 0x12b8d10f67e40ccdU,
  0xf743a6e939cc18adU, 0x2224fc3140f007f8U, 0x9c28db930dd6ba17U, 0xbe8ecdfbbed0f28bU,
  0xe0c589d89397b33U, 0x8cac00f2baf394c0U, 0xed1ddb2b81e3a7a4U, 0xca9c2a2dd99637bfU,
  0x3d7bf3e785f095feU, 0x4e6ad8b8fca3a6ccU, 0xdd58f4ed7de4f6dbU, 0xcaeeb3471b5a41dfU,
  0x3f62d01a3c029c12U, 0x6a2bf1fe4e2ace26U, 0x151ea14dff1ec2e9U, 0x44aa547aab158cdU,
  0x1cc1db1f35b1d0acU, 0xba52d7e753d30837U, 0xbe0e35f4b3faf14fU, 0x1727034fe326f321U,
  0x3aa89df43948ec04U, 0x24c3ded3892945abU, 0x236a4d49fea9278dU, 0xe90dd25f37d50558U,
  0xf34f199e31b72e5aU, 0x8e92cb50e61f565U, 0xdd472d2aeb1bdbc5U, 0x954902ddec082654U,
  0x9e42d82afa15b95dU, 0xce1e0ed90f85b6b5U, 0xdc7c2aa1e5ddacd7U, 0x19cc29e80f030015U,
  0x1d84619f3d0165aU, 0xd81bec7f1bc84d28U, 0x47c3bcaf4f92eb45U, 0xafd4565dc4084e2eU,
  0xbe1dd638ed28f94aU, 0x5ffd27f06c55231bU, 0x5de53d0108c135b8U, 0x3725ca0a33e716d2U,
  0x17524e9b4027c51aU, 0x36dd911b27bf13b0U, 0x168fa44931cec0eU, 0xe34ed274c6f18b05U,
  0xb0047660a1a3667U, 0xd38b39d8b8ae55ceU, 0x1d9a08369befa781U, 0x22c6d7484a9eaa36U,
  0x26de4adebe1bae2aU, 0x722dcf30b80d9498U, 0xdb45d3b30426d359U, 0x3908eeb4d34ae614U,
  0x1bab2c48fe28da32U, 0x2eced6d1272b522eU, 0x4c30be1a4673e03dU, 0x352fc7cfdbb723f9U,
  0x5006c1dcf80feabeU, 0xc040e9126225e028U, 0x23f44c2a8135e8e5U, 0xbfbaf4f3309b4158U,
  0x10a708d602dadd0cU, 0xf39139219c2b2ebbU, 0xf1b716c53f043b13U, 0x6343c3495fe70aecU,
  0x445833b4c99b3e39U, 0x4842082a58e750f3U, 0xca610c13076613e4U, 0x4a25e56e1fd6b6d2U,
  0xb183bcb8a239e938U, 0xf814e02ee4ce255U, 0xda55d2724412f6ebU, 0x48f3313be139db9bU,
  0x76aacc2897fb4cb6U, 0xb92b4133f6c8f428U, 0x9c288dc0f44dae8U, 0x54f73f414537b217U,
  0x6ae3c4f9a164f02eU, 0x6bf9a200169e32f8U, 0xf11eaccaa631a030U, 0x76102b70b721c8dbU,
  0x3cbf732748126544U, 0xd52459e50b13c9f6U, 0xc38c834cd4e29604U, 0x9e3738d9b13a49e1U,
  0xa78d2ee9191a3427U, 0x20204300074250a6U, 0xe42c3e1c1cf24f4cU, 0xd0db284dd3c33f36U,
  0x44b809bf05e93da8U, 0x71dacdc0dc0a63d3U, 0xb52dd2096037d1f0U, 0x7f385379e1503245U,
  0x84ce92df5b53a5dU, 0xa5c4f1a9ec11b565U, 0x12d763589bf78a30U, 0x3509029ac9f8cf58U,
  0x604af6e1a41d0f1cU, 0xc24f50a06d5128aU, 0x5d4b7f104240bea5U, 0xe119e96b45d2198dU,
  0x3b79041a1e4b0087U, 0x46d9aadd9409cccbU, 0xbfa08567ff4a15d2U, 0xa86c451bcda0fd2cU,
  0x65e358f9e43d1b70U, 0xf9d1076b2ecdb172U, 0x1c0af3ca7538bf48U, 0xd63e4973ff4427fdU,
  0xb9b85563bbf3ff05U, 0x591cc5209a9cdf0cU, 0x1263fb71ff8dadaU, 0xa5095a3aa44d48d9U,
  0xe740fb41e887f66dU, 0x4ce7da135bf5ca6bU, 0x3e025b2c367ffc9cU, 0x41cb3ed8701e2925U,
  0xa25f392d021a5d9dU, 0xa52407e817df46ecU, 0x25a828d899d0dcedU, 0xdfc3f62010b149fdU,
  0x223a21b446b34ec4U, 0x283910ff1b04e400U, 0x42c42404489b420eU, 0x493d30f400c9dafeU,
  0x5a2609da1934d1f5U, 0xb4cc56fd0c09bbeeU, 0x2b170dccc102c1fdU, 0x635f05fbddc1d541U,
  0x8fcdbfa6dc2dd10U, 0xfcecb4b2f4fc334U, 0x46f59b4e650bcc3fU, 0x4e2e123d3d8dfb18U,
  0x57eff4fb85484fU, 0x26f5035fab48c11dU, 0x636981c4725f0f4U, 0x12d472cc693c00a2U,
  0xc5c3a45814f5d532U, 0x5dc4e7950566f8fbU, 0x22e1c8efee0eceebU, 0xb6b937d416dcdc01U,
  0x1cec131ad5e9afc4U, 0xbdcb7132e5559dd3U, 0x31a450a7989aae4aU, 0xc6b3aac3aeaca437U,
  0x2f69477ffbd32a61U, 0x1d90e704f9e529aU, 0x7840bbc6d635221eU, 0x53ffb3d923a379c2U,
  0x33d718cb603b21e6U, 0x7ae31316bcfe2f4fU, 0x3806d61cda73cff4U, 0x63f50b14ea473cc6U,
  0xde46f3cabff5d6ffU, 0x92e0e945440bff21U, 0x60e03465252981c6U, 0x2a441fe70245e139U,
  0x610cd20319d1b251U, 0xd328b921afccf543U, 0x35c1e00393351746U, 0x3741a0f9ea3bc2abU,
  0xd70c4604dae3a6d8U, 0xf2380ef0e00cf842U, 0xc72515cdc906afd3U, 0xc6bb36e9cfdf0144U,
  0xe2cf211d4b0112c5U, 0xd53b31a7e329eb4fU, 0xab265625ac29d3a9U, 0x3893b73d49813c08U,
  0x3ead7c2419b90f6bU, 0x11cece3cebcb4516U, 0xd8ecc0ca4b581223U, 0xbfca7232da343fcfU,
  0xf2063fd8a5388672U, 0x14f9b3fa24d15f47U, 0x646e1dc44141d624U, 0xc450c43246c4a8c0U,
  0xd4fe55f1ed0b0f13U, 0xedf459b64f3628b9U, 0x322c7fe6e1de92b0U, 0xa1f9431f56e12c3aU,
  0xe8a61f0e24cdd2c3U, 0xebf392f868cfaac2U, 0xe7b5bb661cdfd5e0U, 0x31c33ebf8ddf1d58U,
  0x3f4a0307ac045e03U, 0xdcb255d4085cc8c9U, 0x9d5a0b7ede2d717U, 0x19fac237a4fd275eU,
  0x19a01ea33249be50U, 0xe63614bbcfb7f63eU, 0x2c0e059816f4efabU, 0xfee5d938c1d7b7f0U,
  0x4c1411b6e906ec0fU, 0xa9a7ed340d2fe3f9U, 0x46f718b1f43ecdb0U, 0x6716fd3219f6ede6U,
  0x491ac3ccf8bc55f8U, 0xdd0d6b1ab196343aU, 0x2b1a48cf42c0229fU, 0x24e436e5ee0414faU,
  0xe01bbfe8c73d1ab8U, 0xd89db24d1ac06831U, 0x660177603a7fea5fU, 0x66bd1ecbf68eec69U,
  0x613f1ea3a645de2eU, 0x3cd30bd215b9c737U, 0x2742bc11b29ecd96U, 0x7f1daf922f9e750U,
  0xe43cc7ab03c5dfc6U, 0x2b105a04d5db3716U, 0x49d2c2e0c443ff4eU, 0xbc8127500f92b916U,
  0x454369c411ccf461U, 0x2fe0c2949c02d307U, 0x6ce96f02f1e573aeU, 0xd1dfd4051334baa0U,
  0x5237a6ec42b2eb99U, 0x10b9940e7bba3d94U, 0x59e3f185ab0ae452U, 0x154aca2f270b4db7U,
  0xbe3c48c100fd0b07U, 0x2019bec0f2510bdeU, 0x1b3f2ba92d0cdd2aU, 0xd4132e2790f20062U,
  0xea1a71d251c7935aU, 0xc55930e3ddf644c7U, 0xc409dbc516f221b9U, 0xbc44f0d2f06fcd40U,
  0x24cbd1f2add2f81fU, 0x1a04d30dc55720bdU, 0xe1ffb5d21f2fe535U, 0xc60f2dcaaa9cb865U,
  0x17c9afb838f3f0e7U, 0xeefa22995a3913fcU, 0xde4bbc5e7ca9328U, 0xa45523d119f7e7dbU,
  0x2db64ce13f270da9U, 0xbeb71ecb6363f706U, 0xe8192705bb2ecf1fU, 0x81a673b5ccc4daddU,
  0xde71729fbc004f9U, 0x38d08cfb09d5effeU, 0xc630b7df261736ccU, 0xee55d61d0fc80456U,
  0x8316bb1fef522617U, 0xb10d181e4d83a9eeU, 0xb04eb3172917f4fdU, 0x26d819124e4264c7U,
  0xebc41f9412c7a0d8U, 0x2a2fca1cb7eb3cd5U, 0xfe000d0448fe35b6U, 0xe4bb07117f3802d0U,
  0xd3761c433d4354a3U, 0xa0c4fa4a1e3eca10U, 0x18e6cbdb145adcf8U, 0x31debbdedb1ca138U,
  0x31462ea2b1fa81U, 0xb1c0b92be54846b9U, 0x52a7e53eefc9c415U, 0x1605e9dd07ca34f0U,
  0xcaf4a700bb45de51U, 0xe808d6fb1025e1ebU, 0x67f2fddfecf22ecU, 0x2118ea8312bf4ff7U,
  0x3e7f7e8c022cd3bU, 0xa224cd220dd6f21eU, 0xb4fc4938c32f5e98U, 0x9d69ed1ef0f31de5U,
  0xefb420aebe233f52U, 0xf9d03bd80ab4e017U, 0x26d9b2e944bd22eeU, 0x47dfa3042ae5c12fU,
  0xaf94e948dda73a23U, 0xcf102cf6c121312fU, 0x13e4e106cb3a5706U, 0x332cacc8d4d4ffefU,
  0xdc2fafde2f44b6eaU, 0x57f8e0f1f6c7bbc2U, 0x3d3b6b64417ef43U, 0x2daff77f4593f137U,
  0xd126fa0e752dd4c6U, 0x2b563b25f1e90d45U, 0x306043f80552eebbU, 0xcbdb280fb000cb5dU,
  0x409805431f25d750U, 0x4bdd1f4dfe4c20eeU, 0xbdfcceb8dfaccdd6U, 0x5e477f62fad9ac9U,
  0x320d3b4e00f21d3U, 0x1443b86a38b3cfebU, 0x4138210041b0d33cU, 0x210c395b54e6d3eeU,
  0xa8595c2b1aa89ff4U, 0x2fd50d4bfde03120U, 0x5502d70b4a01701aU, 0xd418e54063d74512U,
  0xfee44529ff0bcfdbU, 0xc894fda6f3e69834U, 0xf069d2238cc4e11U, 0x4f04465a12de994cU,
  0x341b0b2ebcf738d2U, 0xce0334e8a14b2966U, 0xb14540d2cb99213aU, 0xc2004ce25570005U,
  0x5f8815150fc3557U, 0x425534f427ec44deU, 0x17ee485416c936c9U, 0x664e1398dab42ee1U,
  0xd9473248a247aaU, 0x1b4fd6ce3faf199aU, 0xce04971a6c367fc3U, 0xd424c3c6bd0301eU,
  0xab11c335be222fd3U, 0x5ddc12bb05f01a64U, 0xd621dbc3d5d8dbccU, 0x262c29d3c71ce4e2U,
  0xf0e1faf41dcf2bd0U, 0x6273afdee6de5b08U, 0x335eb34db20575cU, 0x2d97cd55bad9d929U,
  0xf2a1c0baf0b661b0U, 0xff2546c33c5bfe6eU, 0x4211375417620ee5U, 0x3fb8152b132afaf0U,
  0xaba6b411ec33dc6U, 0xdc1cfc670dcf6799U, 0xd7b9101acd4bcff1U, 0xe93dc141c11d3222U,
  0xc04022fb40ba12c0U, 0x19f13cd845140ba2U, 0xc3014ffb81c3a20U, 0x1511ae55a54cd9f3U,
  0x3abecbd1ba75b6e4U, 0xffe22ad149ec05adU, 0xbad19d63d5c8205fU, 0x1fdde0f47337a607U,
  0x29bf8129372cedc5U, 0xed4e2cf255d828U, 0x21a537b309e19a74U, 0x7b42172ee1c8eadcU,
  0x52c42248f6548152U, 0x41f553c362965823U, 0x525bdfc50fdeadc3U, 0xf7ab3637eab7b994U,
  0xaff3d2c742be08eeU, 0x337d7e2d7ad0295U, 0xbffb35442be879c7U, 0x3b6bc7ef4e8bU,
  0x3b8ac2cfbdd27854U, 0xb65667afbc557dbcU, 0xa9ec1f1c4c65b5e4U, 0x1c144ce05f538e27U,
  0x36c14adcd70347d8U, 0x57defe5df91f3b60U, 0x4db9e5571ec6f841U, 0xe121c614f32f6200U,
  0xf3d4afee56b511e1U, 0xde1de922de0734feU, 0x27cb04efeabcbfdfU, 0xad541374b5e6d6f0U,
  0xdf85a45d43cce0f4U, 0x329f03d4747dca8U, 0xcef7e72bfe03fb2aU, 0xacc09ab1fcd83bfbU,
  0xabdd42ea25e345f5U, 0xbb3f035defcd423U, 0xb525d27fbb176e5eU, 0x4d0f1906e1330304U,
  0x641dc495cacfda5cU, 0x2f0523be6920eacfU, 0x671ffbbe101ea8a1U, 0x15fed4bf5d1cc216U,
  0x3c9d1223afebf89eU, 0xcaddc244fa1827f4U, 0xb8e60ef059cc4ccaU, 0x3f054e4562581d28U,
  0x4cabdef4d355ec11U, 0xe63ac23ac847d529U, 0xfb7ad29dedb9a4dU, 0xc336019fa8fbd4a5U,
  0x3c2a372ddc24f6edU, 0x2e33f73fd73d5510U, 0xe622f8a5d654d9e5U, 0x8ff2f4bf5fc1e79U,
  0x141f8113bf0eb813U, 0xb0d8b91ad4b3c9f9U, 0xc2439444372902a8U, 0xc09b25b5e7b1b62bU,
  0xc44eb2c2b8c1ec4bU, 0x573538c143e8ac2dU, 0x8ed5cc11dcc0c9deU, 0xabdaa0fefae2cc46U,
  0x302ba427e0c8c7a7U, 0x59246035330f5c97U, 0xec285ee5d4dc3ae4U, 0xfd4e36df11ed16bcU,
  0x4aaad9e0a7cadcc9U, 0xefcf993ea1b1a30aU, 0xf9332ff13c268152U, 0xa72f152afc49024eU,
  0xf0b9564dc64b034eU, 0xe5e69530c7d107dbU, 0x38e8d2c6323b2eb8U, 0xa428da38e640f012U,
  0x742d332c4e28bee8U, 0x1f57db0e36025445U, 0x220c476fd7249625U, 0x5be9f0ebe5d71bf1U,
  0xe10bcccb9a222a28U, 0x96e0af104c6a2949U, 0xf7d9462a16d9beb4U, 0x5bdeb5b162e4242U,
  0x2e2655ea3a1dded8U, 0x9caa26d3f4d2e581U, 0x6451d1fbfbabd291U, 0xf3b189e88b4943bbU,
  0xb4b10a2e1f019c11U, 0xbadee7ea5151d497U, 0xdb1d1bebdc3259d2U, 0xd6f8b2ea9bb90b56U,
  0x49e1662014d402cdU, 0x97ce5e40c1a2ee3dU, 0x2fead0172e385164U, 0x2bf253370c2a93dfU,
  0xdae302601ba129d3U, 0x2b2bac59000c103fU, 0xb407f400145f07fcU, 0xc6df6cc0f0e512b8U,
  0x4832e40dad5006b6U, 0xba3f45b719efce22U, 0xf1fc9d072fdedd37U, 0xd71092ac3755d341U,
  0x687ff72345034de5U, 0x3c471424ac3f02d6U, 0x7fc4dde13dfcf4b1U, 0x5606eb113edb05c0U,
  0xe2594426eae13db3U, 0xd2ba1c46d0d72ec6U, 0xde34ae47c937b1e2U, 0x596ba0d2f0940adeU,
  0xc9a1b6116b197561U, 0x10446cb2cbd927ceU, 0xf6511dafaaee03dbU, 0x3d34cfc2d7d1c6ddU,
  0xcbddf5cca3cb36f6U, 0x87069a247c039c0U, 0xceefebc2fad9f7c1U, 0x190beded9119420dU,
  0xb12616d65fe82ff6U, 0x4b973d4232529edU, 0x7ef6643e1f7e708U, 0x46743715b510b906U,
  0x2e68d1a450fb965aU, 0xae08fd5f0f91373bU, 0x1623e9cd72e11cd8U, 0xa0b65488abdf6554U,
  0x9b37efb1025c3f1aU, 0xb630b9c1afd9741cU, 0x546500e0a4d70e3bU, 0x8b7fc2f1a15dfd68U,
  0x404a4a1287c6ab05U, 0xab39344f4921c500U, 0xe8f9f1d79f9644b9U, 0xe05f2b408dee3306U,
  0xd900d05eec254fe8U, 0xe16250d6d30fea58U, 0x2bce428cc01d0464U, 0x1543e9411ef218b3U,
  0xaf2503212392fe18U, 0x89ebb6a1619d1cfU, 0x923e13a5d4b7ef73U, 0xf08643b9e6e1bcfcU,
  0xb4b9f590051f3619U, 0x5f5a19652ddd1655U, 0x3b4e55cc506bc55eU, 0xa74c2c4670b02581U,
  0xd21ba4fe0d2bb143U, 0xf753f7aee4f54235U, 0x7e4a11dd0c80940U, 0x1bf30feac36ba847U,
  0x87362ddbaa8feacU, 0x2e3d545d12c06f7U, 0xe0284fb257d4cb67U, 0xfb473acc130fadfbU,
  0x2a0711fd05abd744U, 0x657f30dea428b60aU, 0xf4c9ef62ebf3dbb9U, 0x1aa7be6bf0da9524U,
  0xcded5716b7ff3dadU, 0xeee245e9353b1528U, 0xaf476a4a5607b6bcU, 0x9734baa2098e5730U,
  0x138ca11389c2a15U, 0x50b15da9efe83bd9U, 0x9e701f418906de28U, 0xcbd25f38327f1020U,
  0x312c31b63843e0bcU, 0x513144b6de3e5905U, 0xd0e7dbbfdaf5f911U, 0xfa101c112d548e42U,
  0xa54309b21a060307U, 0xd349f2e3ed2234fbU, 0xc781fc36a5cd16f0U, 0x23bbf0aadaca248U,
  0xf0cb4c0115e1d4bbU, 0xe4c3eb122f01a798U, 0x2b09e70db5e911f9U, 0xc3a3cf10d5d20023U,
  0xca3af72010c1f3f6U, 0x6d645464cdc200dU, 0x7028c83a0d262eafU, 0xd1e7dce9b9d7270eU,
  0x12ec43fae5063cafU, 0x9812ef4255e1dae2U, 0xc8624cff2cbe21ccU, 0x5d9563c805c6021aU,
  0x2231dfd32dcc0c56U, 0xd3acc9e8b0f42e42U, 0x100ed5f0451f4d33U, 0xd5cb4fbfd7cb9a9fU,
  0x27f0e0ab2c990b0dU, 0x3850e9a9a33ab9d3U, 0xf4c1d1952354c534U, 0x405d41ec81c90761U,
  0xaaf9c12b531120f9U, 0xa65833dbcadf59e6U, 0xc4b95dfa0bcbce25U, 0xa9be383e54ffc3bcU,
  0xdfceddfa63d40ae8U, 0xdd1e2aecab4acf4eU, 0xe3222bfb5eadc214U, 0x6a11d2cfc8288f3cU,
  0xb7062ff7087fa8adU, 0x601e5ffc2972bbe3U, 0xc2430cc11c314cbbU, 0xc078f0fdf652db35U,
  0x2ab0ef0949096924U, 0xbf93aff15ea7cd5bU, 0x530829313f595d18U, 0xb7ffe3f83b06b9cbU,
  0x1617580076ffbc18U, 0xb5ba0f0ba039baeaU, 0x454035e93f3a3932U, 0x55639e626d6faceU,
  0x369dc42650edda8cU, 0xdd2ff64b10321002U, 0x29eaecd7edcbf8e1U, 0xd74feec0bb23e3d8U,
  0x244e04ce1f42e840U, 0xfbc43aa81b002138U, 0x163acdfc251e2114U, 0xb3f8efc62f32b608U,
  0x3380ce3e4323c2dU, 0xe7d7c7260411de0dU, 0xf10d7ff01f3ede20U, 0xacb806082d3734efU,
  0x3a0c4112ebd7ae20U, 0xbb21df2b3ee5d4e9U, 0x32d4f8e6c400f3b6U, 0x41bbdee4461adbbeU,
  0x3d3fd5de2bed0b01U, 0x4f0d3744f3db193dU, 0xd40c34d7e8473de3U, 0x53514f5810cde7ddU,
  0x19900140f55938d7U, 0x5ac639bbc3a7bf60U, 0xb36f58094c0c24c5U, 0x2c6b1a11447f19d0U,
  0x37cd41efe0fb9b1cU, 0x1104e788e0e425cdU, 0xa021fd9dce13eb2cU, 0x20a3cae9d3c3c1cdU,
  0x5fc3beed324f445aU, 0x80ebe1113d743d5U, 0x1e322b2c4bda2f1aU, 0xf33f1ca8d1fcc122U,
  0xb639e1aa1e68c7f2U, 0x37f3243c1b5ce2fdU, 0xc598ecec6e4059f3U, 0xfeedd4f3bbe5af55U,
  0xf9a7ded0fb7ff1bfU, 0x32f2dcf1a31aa33aU, 0xb87cbf87ce0f6f0aU, 0x3029f6139a2d239bU,
  0xb0a8272848f4c6c4U, 0x3d0fd8bb650fddf5U, 0x123021e31c0c1030U, 0xc4d4c9d91f2747aeU,
  0xc3ed869392d1802U, 0x61ff47f19981f3a2U, 0xd5b9b94d55fc63f4U, 0xc7001e406f48c21fU,
  0xe6f9fcd7b90e1098U, 0x14ba210ec52a0eecU, 0x62f3d9d1e0518ac8U, 0xccc55156bd39a9U,
  0x27ad18d355dd4526U, 0xfd1af6da653056caU, 0x137f05070fbc40abU, 0xd30e940ae7532d4eU,
  0x68affbd901fed9ddU, 0x2cbe159a25e4ce53U, 0x64d5ced2cb022fb5U, 0x29f91f5671e2f02aU,
  0x5b1ee5d72e1341faU, 0x2008db17515ded01U, 0x89f0c71cabc4ac6U, 0x9b28444dad0d1eecU,
  0xf9173b3b1d175855U, 0xb1f1972ba865b764U, 0x18b2d9c7daf1ddf9U, 0xfa812764ca33a956U,
  0xaa3afcfa5cf943e0U, 0x3909a5a98af447f5U, 0x5f24c93858ca0182U, 0xfcdba47527cf8145U,
  0x363eeefe47c5e9c2U, 0x51de9bc42fbd6b6U, 0xd0b81b4df6ebc4a9U, 0xe0f2c1b2b2f9c364U,
  0x3706d01743c3ff3eU, 0x15c8c19da5b0b94bU, 0xc7a1f3d6af3eb091U, 0x112ab814d0fabdccU,
  0x5da012b7fbc8e863U, 0x39eb6956e2964b54U, 0x35d5b7b2bbe7b8c3U, 0x61c352cd3f1a5942U,
  0x192c39cfca73e74aU, 0x55d23255633b2becU, 0x2eea38372b7b614cU, 0xf3dae956d239d2f2U,
  0x1c13df3e843f846U, 0xbbe8a5445a41e359U, 0x441cc518a93d53ddU, 0xfce184133a6abfdU,
  0x9304f34ceaa0b54U, 0xe854d17fefe762dfU, 0x40fd01e89e271c34U, 0x2ec6c7b63acf1219U,
  0xb0ed14e23d2eab72U, 0xe0e455b0a7f942e9U, 0x440529baa5433611U, 0x50f8a8b9c4ca1645U,
  0xceca081aff1a3a88U, 0x54b8cc431ece5dd6U, 0xbd60bdb435edac33U, 0x1b01c423ff3cc3a6U,
  0xf729e38c00c442c9U, 0x81c330372db031b6U, 0xe6be0238d9b28e01U, 0xd1d634cadfc6ca36U,
  0x3e8d50a105f11ebU, 0xc94bb7c9041d4048U, 0x5643e6d8e4692cdcU, 0x4cdbf3f444ecd90fU,
  0xacef0a4a02daf936U, 0x2c31cb3345ddf1fbU, 0xcf195a24bd5352caU, 0x3ef4ad62d1a1b5a5U,
  0x7004de0976f826f7U, 0xf1cf4e14cafd59eU, 0x77ff41d6190d023aU, 0x6460d0412bcdbfc9U,
  0xf242a3a5aeffb2dU, 0xd02ddbe6c2ad4a7fU, 0xf0a44174ec0e0720U, 0xf215efc49815fdaU,
  0xe4deb7f6052b0f44U, 0xdab1f8bd2cba03f2U, 0xaee31d42dd2001aeU, 0x543ac648e2bee0f1U,
  0xe70401a5fed4b500U, 0xb6a766ca26421cbaU, 0xe6d3250f6e0e9b97U, 0x3d9a7fc8c357cd1dU,
  0xb264e82234bf40cbU, 0x3cd9144657b93ea2U, 0x4540596c2184ef34U, 0x512e6599d2264deU,
  0x56d3b1cffbc301e7U, 0xebcfc0390453969fU, 0xb6f1d159be196ccaU, 0x27fa26dfa40ff40eU,
  0x4023e6dba1b38d5dU, 0xfcd9bf380b362cbeU, 0x895c539b05efdc51U, 0x241daaecbb13f2f8U,
  0xd82f63b73b22d712U, 0x9d2d593816edcda8U, 0x11cc37d4c0d224ddU, 0xb1100e34db10dd35U,
  0xfefe34d5e136b2efU, 0xdcf80e1c186adadcU, 0xece60737d5f77fbaU, 0xfeb5bd2ce4aff2fbU,
  0xf2ea0a4075cbcef4U, 0xc5150f59d5da0dc7U, 0x4f2270f17e42344U, 0x72bc312d3470a2dU,
  0x3ab4f433e1162a44U, 0xfdf4bcd60f0606f7U, 0xd42041f159d7bdecU, 0xe9503f21ed3e1bfcU,
  0x16e0e0ad0746daecU, 0x4bc5cec3bcfcf3c2U, 0x8b4b3cfe1009d230U, 0x5d45b1d6b709d177U,
  0x329467ae5906c6b0U, 0x543ca314eaacb3a3U, 0xc98edc9ba8862e2fU, 0xae04ddcf3607d793U,
  0xa5e3d5da2cc4e963U, 0x4d4b9e4a10cb088fU, 0x674c48c0f60b12ceU, 0x470755ac6646af72U,
  0xb295c0bc5a31a941U, 0x819d0af204239be0U, 0x8c2c8eed486ff165U, 0xef5565049d30f59U,
  0x513df84e0f52384bU, 0xc0a79739cb26bb1aU, 0xea20cfd93602273fU, 0x42044c135f3ad1feU,
  0xc292fbad323ff9dU, 0xd10bc33a0dc7b204U, 0xb3cdfaa4ed2402e9U, 0xa0c2aa1c3a2cd8c1U,
  0x8ffc1f94819150fU, 0x83f2ddb764ec2eacU, 0xbc818233373ab7f6U, 0x3101423cd7313fe7U,
  0xedf66ff2bbdc38eaU, 0xf54c37f129b0b8fbU, 0x163358b70cd9b710U, 0xc729a05fdbfb356fU,
  0xcdcfdd1c34222d03U, 0xdfca39e8e4fc1cbeU, 0x56c1dc63f7cb0022U, 0x46311e533b37655fU,
  0x752f8145f62920e2U, 0x30fa0b36f75a4e67U, 0xdd1e9bed77f617d4U, 0xfa1371a23cb02704U,
  0xc1e306cbf45b54d2U, 0x2b00d779d90900edU, 0xcb0d0bd829d03238U, 0x247ff07463bd709U,
  0x6cca14c9d2d82b50U, 0x47f71df340360c42U, 0x2752504e51b942afU, 0x50b8f7d7fef60a43U,
  0x3d3c6d3100e626e4U, 0xdfa9b0afc043619U, 0x22d440e726bda1c1U, 0x80e2a498c473835U,
  0x1146c9b8da9cf72eU, 0xedb710212ab2e34eU, 0xbae332109e92af33U, 0x243407af0303e421U,
  0x314ef646bf610949U, 0x121ef8ced8d1daf2U, 0x1b6d54bd8a06d469U, 0x6e492d1efd20da35U,
  0xd5ea20bfab642f28U, 0xf329501fac1601b6U, 0x22d4dc12ac20aefeU, 0x2494e04002db98fdU,
  0x4308309781205856U, 0x45e922b9fb461005U, 0x1ded33a2e491e91eU, 0xb734937acbd0b6c4U,
  0x34e558d013ee3f30U, 0xcaed3e1c9339c4a3U, 0x161e3dc9e5d57fe8U, 0x1eacb9d459bd1abdU,
  0x2e2d35fe4230d2e2U, 0xc014e9e8cdb2d05bU, 0xe5f9b1e7b9e5f9aeU, 0x6310229fdd6e5b7U,
  0x23f6e6c93cf227efU, 0x3febc35102f3bce3U, 0xdf27d2411b5dfcfcU, 0x8b85e86f5d9ad97U,
  0xc6c9ea4530352ff7U, 0x45d6bdf0124dd00eU, 0xe9443bd970eaba7fU, 0xc4f8f5f30740d73fU,
  0xf5febd5aeee35b6bU, 0xa61001420c035324U, 0xb7410446e3b80637U, 0x3e1b11e5aa6bd7bbU,
  0x2948e614d2c8dbeeU, 0xacf988ce1ae163ddU, 0xcd83cb1c24c38aaU, 0x37acdb51574233e8U,
  0x523723c5d9bd1d0bU, 0x3567ba1eec251306U, 0x61c7bc96dfbadedbU, 0xd02437cf49b9b171U,
  0x15d03ceb4e3e09b0U, 0x1cd00a24abca5152U, 0x81a692272bfbcaabU, 0xffb7bd0e3121d15eU,
  0x402d4453d6fd6797U, 0x59640495b64d1122U, 0x8f5a43fce85bd623U, 0x58dda61a4dcac8d4U,
  0x2e492649b1f8b731U, 0x34e707be023a1144U, 0x6fb37949a8565dbdU, 0x506e37378472b250U,
  0x6e8fdf1549a699f5U, 0x1111e92fa5132018U, 0x2d6b5f9a87bfb23bU, 0x14ba0f2f1cb95251U,
  0xebdf54f2db6fcecaU, 0x32cd5bfcb918afaaU, 0xbbcaaf63fa8bfe33U, 0x2fc3ab5e9dfd0e0U,
  0xc2eff3810c357118U, 0x12f025cbb31bd3deU, 0xb40f0a2e2b04c73cU, 0xdbf9f7e1e02bd0bbU,
  0xfe8da552412403a2U, 0xe39ad00c2d91c212U, 0x20ce93671885ff68U, 0x284ca9ff9debffe5U,
  0xf840bef2f6ebd3fdU, 0x6e33391f0bf42eebU, 0x3a9fc21f361c34bfU, 0x9b3975df3e1b2665U,
  0xc12db610df0715c5U, 0xafcace3ff5ede7d3U, 0xfad441ec506564e5U, 0xb0c4b62b80efa63U,
  0x93e0d2c3de1ccc0U, 0xc71c35cb14bfda41U, 0xb851ea0bee79d82dU, 0xe5321e382fef94a2U,
  0xf9bfa6c649d01d29U, 0xf0d60fc3d451f052U, 0xa2feec36c2e0d9c8U, 0x31ebf1050de40ee6U,
  0x2c7a1fff28a2fa19U, 0xc55d73e02cfed412U, 0x32da1472ebf9fdb8U, 0x9ec9f6911e290234U,
  0xc119490f0eaac6a0U, 0x25db35efc32ad07fU, 0xe5d434f5be0ac842U, 0x1e22cffbb1dd04b4U,
  0x2f1dceb1e7fadf4U, 0xdccf13b7d904d400U, 0xbf032f256bbf4aaU, 0x18e0021a1de53049U,
  0x7f722bf13b7355aU, 0xc631b5fced34d1f3U, 0xd5d410f81fb3c824U, 0x1bc23c1e56101928U,
  0x68181e0335f5cea7U, 0xa8363448dde9093cU, 0x3abcc127e3471591U, 0xdfdac13bcdd4c80eU,
  0xe7e1e05c1bf31e0dU, 0xe948422ef5b9dd56U, 0x6f5cdbcf0c6b29d2U, 0x600247db2447a7a2U,
  0xf51461021953f1ffU, 0x929371a23ead5d22U, 0x5616548e034ae746U, 0x3da9b21729a40119U,
  0xd50a431529b81978U, 0x9d5a952dab26d344U, 0x2c45b83137491f13U, 0x8bc314fb20a20599U,
  0x3754bf0a1da503d6U, 0xcdd610dce9a94ac7U, 0xc654b4f81a5930dbU, 0xe727863a575948d4U,
  0x81e3d1a6022c3da6U, 0x21502d75d933e324U, 0x47c8da65e8e86c4dU, 0x4e0aec33becdf631U,
  0x40e534094118ae2bU, 0xc1052ff21df0732dU, 0x4cb1f351023d8552U, 0xae0a571cdbed2630U,
  0x42d341b2993f098dU, 0x2436d63ee15f001bU, 0xf7e00796291209c8U, 0xfd38ffe0f8d12d4cU,
  0xc130a02e54efe6d5U, 0xd73e200631c255fbU, 0xde5007e7a3650104U, 0x7cd05473ea1a27fU,
  0xd03209e1efdd3cfaU, 0xb0af2b0c2e1abc5aU, 0x5207efd74a07b658U, 0xbfc96d07dfbf01f9U,
  0xc6da5c1822db7299U, 0x26d2e7bb196e31ddU, 0xa1259fa69e0d3b4eU, 0xf649ef5eda4abb2fU,
