/**
  ******************************************************************************
  * @file    network_data_params.c
  * @author  AST Embedded Analytics Research Platform
  * @date    2026-05-19T16:55:46+0200
  * @brief   AI Tool Automatic Code Generator for Embedded NN computing
  ******************************************************************************
  * Copyright (c) 2026 STMicroelectronics.
  * All rights reserved.
  *
  * This software is licensed under terms that can be found in the LICENSE file
  * in the root directory of this software component.
  * If no LICENSE file comes with this software, it is provided AS-IS.
  ******************************************************************************
  */

#include "network_data_params.h"


/**  Activations Section  ****************************************************/
ai_handle g_network_activations_table[1 + 2] = {
  AI_HANDLE_PTR(AI_MAGIC_MARKER),
  AI_HANDLE_PTR(NULL),
  AI_HANDLE_PTR(AI_MAGIC_MARKER),
};




/**  Weights Section  ********************************************************/
AI_ALIGNED(32)
const ai_u64 s_network_weights_array_u64[27481] = {
  0xdb95858c4981f84fU, 0xf3fdad3c13ac4cceU, 0xd9f73a21a447030eU, 0xf29fb2252eeeace5U,
  0x650f7fbc5cda431fU, 0x1de5182cb89e6549U, 0xcdd7711147f4bdb3U, 0x12ed9be8fecbcb30U,
  0x5728811fc2d428cbU, 0xd3c2042ccd7e703U, 0xffd1c42081ff7216U, 0xf30aba16d5a2e999U,
  0x89fd4fa574d1da72U, 0x288174b2b13762baU, 0xdbc77a4a56b25248U, 0x61f0952d6f44637eU,
  0x2994d5f2cc05125eU, 0x3e5090d89ca061ffU, 0x12c08bed59a9ae4cU, 0xecb87fd88ec1e399U,
  0x152db472097c31a2U, 0xbf1d7c711737d73fU, 0xc96c702f19ca65bcU, 0xd041a6c681461c97U,
  0x59b274466dd22c7fU, 0x73719eb1dc31b3edU, 0xb9e92ca3a970f759U, 0xffffef6a000024bcU,
  0x1d6300001291U, 0x234cffffe145U, 0xfffff19fffffe8aaU, 0x82081483c56fe7fU,
  0x87ee0b050ad5dda1U, 0x7f0a684d23a25647U, 0x5a8f61c9a2e592cU, 0xcc9396a081cc4f6bU,
  0xbf816e3769117fcaU, 0x4540027f3c7fc9b4U, 0xef97a667c13b6816U, 0x1867ad5cc8063922U,
  0xffffe1fafffff4d5U, 0x55ffffff838U, 0xc11ffffe30aU, 0x9a00000e75U,
  0xda972fab4381fc5aU, 0xb3473daf7f261dfeU, 0xe85fcda7927fe1ebU, 0x7fdea218e85dfbb6U,
  0x397ffc6ac74ddfe6U, 0x268149030f2a7463U, 0x8edcf77ec2b79481U, 0xced181ae95b5c4f6U,
  0x9a52aebd300e8581U, 0xfafdfea7b17f45c2U, 0x49898aa073814dccU, 0x5ffbf3572b810a32U,
  0x4accdaf27e457fbaU, 0xe8dba1fdedecb17fU, 0x68a5f062f5fe7f18U, 0x4b7f915cce613fd2U,
  0xfffff5240000096bU, 0x99000005b7U, 0xfffff1d0fffff25aU, 0x1fb000001365U,
  0x21e00001370U, 0xfffffb0c000011eeU, 0x99efffff4d4U, 0xfffff2a0fffff362U,
  0x4f50515420f10c30U, 0x9b02d8d556bf3d94U, 0x4d7f02eee565f8b4U, 0xec47257f895725a0U,
  0x36307a5627fa18fU, 0xc58171472d18f10fU, 0x1621e05db3bcc52dU, 0xa2204e50625275d1U,
  0x1ac62dd174db55d4U, 0x5c90357e68817f9cU, 0xd5ed7f8179b9fa12U, 0x7f07f62d7fd90e81U,
  0x811700ce4d9f17e6U, 0x88d37d49113ddbb4U, 0x697f7a957f9bf981U, 0x9ec5f43cd7dee049U,
  0x1ca4d6d7d74e7f38U, 0x2cb57f05c6e243d7U, 0xfffffb420000092bU, 0xffffef1600000470U,
  0xffffeb580000114bU, 0xfffff588fffff216U, 0xfffff3b500001f6bU, 0xfffff17f00000189U,
  0xffffe3e5ffffdb95U, 0xf8f00001062U, 0x32f7c6e04a501c64U, 0x6adae1313fee7f09U,
  0xa8e4f61fe43617b6U, 0x81e636ba1238c37cU, 0x4d4d69a3a4cb7f43U, 0xc02bd396b8b17f99U,
  0x19061563b019e5a6U, 0x5acc81e54f6bdbf8U, 0xc0ceed6547f042fU, 0x1de65227d43560deU,
  0x43814309e61a2a88U, 0xde5353e651653040U, 0x6d90f981afb18dbeU, 0x929b67d81a0c1447U,
  0xd7bcb4d043a56a87U, 0x95cbe7f47ed9504U, 0xa66908e1c2248c57U, 0xb98e2158077fa453U,
  0xec6d25d0b316e79bU, 0x2d1f17a5f0a7816aU, 0xf101811335e9bc42U, 0x26ae91f2b92c0f3dU,
  0xe0ed32adc53a5e24U, 0x92405404f87fb8f4U, 0xd0482437818a8dbbU, 0xb6531212d325bb5cU,
  0x3f97c0bbca816023U, 0xa542bfda9d28f829U, 0xbc74420521980ce3U, 0x96837fa39ca41e1dU,
  0xb82b3a69518199e6U, 0x32538d42f9bdbaefU, 0xf69ce6aac2ffd523U, 0x7f0f18e44c5b0393U,
  0x80e58df8c4a40a2U, 0x14ccd48161fad0c6U, 0x819298dcba9af1dbU, 0xfefe750dcaf0a8efU,
  0xfa12d63355817058U, 0xd9ef5a199c677a91U, 0x5a9c982b1e1a1afdU, 0x9a81f416f67e24a6U,
  0xf1ab10743a22471dU, 0xd103ba7fe4717143U, 0xc4ae10f4d71a9f16U, 0xbd79d5c29b69757fU,
  0xe003739be85fcf90U, 0xda8100341bf84918U, 0x49bbfc632bade5bbU, 0xfe8f3b280df59b81U,
  0x9e7fc843b44c9cf1U, 0x7b1bf5296b8f1131U, 0x148902b5c35dace6U, 0x88fdf7814e713891U,
  0x7fc3d6af3d991c10U, 0x74250252b571c692U, 0x61a763b1a5bac405U, 0xe8813c8597f599dbU,
  0x2020c6c39b403c7fU, 0xfa236a2b62deb925U, 0x3d7f8777bb918ceeU, 0x1ceee81f5669b222U,
  0xe8c4e6813cfcd0daU, 0x87abf21125160ca7U, 0x9acffffe6b2U, 0x52300000465U,
  0xfffff278fffff025U, 0x90f0000160dU, 0x85800000094U, 0xfffffe1e00000aabU,
  0x170600000d0cU, 0x46300000d5cU, 0xe6b00000990U, 0xfffff886000026dfU,
  0xffffe90700000ac5U, 0x4d000000336U, 0xfffff57800001005U, 0xfffffff100001981U,
  0xfffff0ad00002386U, 0x1b27fffff877U, 0x7f64ab7f12eb815cU, 0xabce81a042d340e3U,
  0x4a9227da027e0f7fU, 0xf1c663507f0d7f35U, 0xe9e38123d6383f76U, 0x6702210be97fcaf2U,
  0x20edbbdc725ed26U, 0x45d07f7f064c416eU, 0x2ee345c29806a462U, 0xa1240274c9855b1fU,
  0x18a70f4ece482bc2U, 0x7fdc112791592a24U, 0x3290e87a00dabcf2U, 0x1c94b281a7930a00U,
  0x3ba0afc27fac5f2fU, 0xd681322957a7c081U, 0xf118650581b9847fU, 0x1181d90e2e9318a6U,
  0xd81439cfde87f30U, 0xe80032a0c39c2226U, 0x4c2942d7957f57f3U, 0x89f1571ce8c3765U,
  0x95542e8fb2de7ba2U, 0x3e27d40711fb2a5dU, 0x755132c85d602646U, 0xa9a3d3c141225b7fU,
  0xdf12a07f658165aeU, 0xd3ffc028e4810e2fU, 0xbea4aecebbb9b8abU, 0x531eb56472a7f5eU,
  0x8115755afbfd91efU, 0xf48a3cee2ed82d26U, 0xe7816fc3372d23c9U, 0x81b8141381e3bd4fU,
  0xf5597f9ba9c44e92U, 0x1cd50efad6500beaU, 0x1028fffff4f5U, 0x11dffffff96dU,
  0xfffffc040000000cU, 0xfffff0660000072dU, 0xffffee8cffffec9aU, 0x46000000e08U,
  0xd3afffffad6U, 0xbd400001747U, 0xffffea4c0000048fU, 0x34000000476U,
  0xfffff862000006f5U, 0x6bd00000be7U, 0xffffeba3fffff08eU, 0xfffffe61000005d2U,
  0xfffff026fffff460U, 0xfffff8df00001098U, 0x9a8c77f1b46f4e6fU, 0xaf99b1bfbccb298U,
  0x17ff6c7f9fb0bdd9U, 0x43d81ccae4ae2b06U, 0xb57fdf704bec4506U, 0x3d9b43e88abb90dfU,
  0xbebe0619e765f055U, 0x5af069f736a5adb8U, 0x5d6b79e61321a67fU, 0xf1b569b45c682e84U,
  0x319f53b4bcc66163U, 0xb0c8606ac21a0774U, 0x1eb4f0632e1448e0U, 0xe120665a1456e422U,
  0x68fdccdf7fd2d829U, 0xe95aa35bf18d3df6U, 0xd2d9d54fee4fe62fU, 0x81cb326d44c290fbU,
  0x4e34e9086ad2a8b8U, 0xf2f2d2d0f7e5cb4bU, 0xd358c8174dca4d7fU, 0xfbd32d04fbd334afU,
  0x1ab4e1842d0cc1aU, 0x32c9ce0d1e21c91eU, 0xacc6ae7fb3d8fe70U, 0xaebdd5621e71118U,
  0xf00848c5de29ffaaU, 0xe0eb009ec5cd0949U, 0x1971ee4946b8157fU, 0xbbac622702b9a1fbU,
  0x9c8e7fd898ef618U, 0x69c3269871dad1b7U, 0xcb1215a64c7f2fd8U, 0xf674173bfca9a100U,
  0x99593ac8639a06cfU, 0x449f4762f97fbcf1U, 0x538de8c7bf5a60faU, 0x38ea39edef5fb635U,
  0x949d78d7f959d37fU, 0x24cb3130afc5b28U, 0xc12050d25e9b8e4dU, 0x2c9cc6c01049f138U,
  0x7115a9a5fd1fd77fU, 0xece34325b676e6feU, 0xdd95029f43a8b14dU, 0xd05649facdb0e4d9U,
  0x145e5ec2c6b08845U, 0x6e038315bbe68148U, 0x4ca96bd47f0edd2fU, 0xc5e9f7caa3edbe0cU,
  0xe701ac5c19ab6d76U, 0x448f59cb6e93784bU, 0x3ec4537e3c5d16c6U, 0x58a1a7c413091cc5U,
  0x81a2b445f40d637bU, 0x411af248071dedd5U, 0x70d29989cce05318U, 0xdabe3604f5fc7fabU,
  0x5944064b4fb535f5U, 0xc2e23780a97f69cU, 0xd2c339f45d814cbcU, 0xd2bdf3cfe147e497U,
  0xda6358f8791aebc0U, 0xe9ebbf8e9fdde709U, 0x26507dfb7f640d2eU, 0x17f749f164529347U,
  0xba5bf8ca955499b8U, 0xf89ee7d96d419f19U, 0x19c8257fbd66d6b7U, 0xee8a0169dccd3e4eU,
  0x2913c8b951450ca2U, 0x1fb4f2a792e44621U, 0xe77f03b147a8bf5aU, 0x4615515ef39a09a5U,
  0x25b434c4a523e820U, 0xcf49a050493c351dU, 0xa693bcdd0a31b03aU, 0xd2b2412b47f489e0U,
  0xcebac17f7aaf8cbaU, 0x1c151e39e26d4f37U, 0xd7519c2f85a06ec4U, 0xdef5d163582d1be2U,
  0x4b1e7fee678c9f4aU, 0x83304ecaced347c5U, 0x8ae3a8dd71339703U, 0xc12d4d9c1c95998bU,
  0xb9de41cd4d565217U, 0x3bb0697f72fcc80dU, 0xe5fef7d27767a73eU, 0xec332794f4f809U,
  0xa21a550e04473b32U, 0x617fd4b556dbb148U, 0xbc32c7e4a857ff0eU, 0x6b48067a36cade25U,
  0x8140a763c3198971U, 0xd4e7dca856e134c1U, 0x68e6027f2ef4f566U, 0x30f6c9d5ffd60d00U,
  0xbed5d52913137142U, 0xd914dffbf733bb04U, 0xfba3af5cbbbc410eU, 0x322a847f0bccad39U,
  0xa9ba6b1e1ac125a7U, 0x3ec9dea37c40029eU, 0xaf103d1e16ab2b81U, 0x22b6a63fe63208caU,
  0xbc1ffd42c13bcee0U, 0x613f5f2bbc0a2646U, 0x3e827e0d39ccdc24U, 0x45bca1380d45ceb2U,
  0x9477ff96b9b93281U, 0x2662194126eb21e8U, 0x190f337fc6f5b0aeU, 0x14ce3a2ae551eb56U,
  0x2cc51d29abf109b5U, 0xb322e32b08b3c212U, 0x1a3b99d681fc461dU, 0xe3f0418d8ae13f5U,
  0xeccb537614b0735U, 0xe8bc983af3f808c9U, 0xb1fc4d42f823292aU, 0x58dd180b2710eda8U,
  0x1d7f12fc4be5385aU, 0x215c02f9e52c6759U, 0xc9cb3cb9ee0df181U, 0x236135d2eb393aedU,
  0x3c2cae21cb230a3eU, 0x5514931e2b341efcU, 0xffffff9b000012f4U, 0xffffdcadffffdef7U,
  0xfffff6f900000a0dU, 0xa2200000db7U, 0xfffff09effffee66U, 0x1940fffff94aU,
  0xfffff458fffff209U, 0x20e4fffff319U, 0x9a4ffffe51fU, 0xd62ffffed1dU,
  0x22f0000037cU, 0x2bdffffeaa5U, 0x1383fffff389U, 0x55fffffd81U,
  0x9d000000350U, 0xfffff57affffcd36U, 0x26a07f7f7f44e210U, 0xa947651a4d2f1208U,
  0x814044c4c376af38U, 0xd1a45fd961f0be44U, 0x107f644b4bf52467U, 0x497d7fd87f4ca7c5U,
  0x3a76c88190e74efaU, 0xd2d6f8cabd27017fU, 0xdf9f25e5f627a27fU, 0x9f5eeffbd1480801U,
  0xf87181e192081c4fU, 0xd8c91516d67fd8a3U, 0x7f0b6c0c74381b11U, 0xdff557ec4537b75aU,
  0x845cfc326b975863U, 0xa8303c7f553b7f6fU, 0x3d30591e0b137f65U, 0x8149d5f2002ff27fU,
  0xc32be4cc567f2c3dU, 0x3b286828fdf17067U, 0xe20fcce42b1d157bU, 0xae7fe65926538158U,
  0x4f7fe3a9014c374fU, 0x7f737fb38173f8a6U, 0x6d41ebbacc2c4918U, 0x3e5e788160a3f9ccU,
  0x25e33c0181f8267fU, 0xd101ea62afe9a1d9U, 0x574fdaccbf7f33b9U, 0x603f6dabcc81276aU,
  0x4fe827ec462b432dU, 0x577f0d70c9a4105eU, 0xd94016f5c3c90d97U, 0xdbc11ba8f24228caU,
  0x28cbcce560f17f03U, 0x1037c0c0bef6268dU, 0xfffff140ffffeefdU, 0xfffffa76ffffecb5U,
  0xfffff156fffffe8aU, 0xfffff582fffff6a5U, 0x9f8fffff236U, 0xfffff05efffff55eU,
  0xffffe15800001071U, 0xde1ffffddfaU, 0xffffe8adffffe27cU, 0x453fffff396U,
  0x52d00001724U, 0xe4ffffe994U, 0xfffff9aafffff92aU, 0xd11fffff4b9U,
  0xffffea16fffff7feU, 0xffffffd5fffff464U, 0x5a222e7f5005d204U, 0xdda4f0cec0083938U,
  0x5cf22baedb384507U, 0x4100214f75051f1eU, 0x7c7f01c328bcf8ecU, 0xda264e01b2fec61dU,
  0xe3b555ee46c84aeeU, 0xaed7029514c1f557U, 0x7f2f56c618db1745U, 0xaf25bd043cc643dfU,
  0x572e29f9f602524aU, 0xa9d0abba10cf44e0U, 0xe0eddaf9fce80e20U, 0x66113a3227006828U,
  0xcbe976e2752307a2U, 0xa8bf2bbeef6df381U, 0xb381f5b4e3890d76U, 0x4618cd63bd6318b0U,
  0xde9de9f52043d7ddU, 0xdf39fa5901600dd6U, 0xe3e2aa8caf4896f0U, 0xaba0e93e2df9d387U,
  0xdf33b51b08227244U, 0x9081d574fefbb3d3U, 0xf6eda4d60a819207U, 0x12b2f91cd2bc2bd3U,
  0x2aefbf115d88c2bdU, 0x28f0dfec22dd042U, 0x7857b12b3ac88128U, 0xa9f6245cacd84c38U,
  0x48e94b89b2b24612U, 0xb4293525013f2c66U, 0x69ceca21c9f93d81U, 0xa913d0296a3efbc2U,
  0x202dad02d0a5b142U, 0xea3b2145afc2da08U, 0x7f93007634ddd59eU, 0x37e5a15834b4e311U,
  0xd6ddeaf195c0d8d6U, 0x5e4c61e15fa47e8U, 0x35c03ad61d05c7f1U, 0x9fd3e09a23f9091cU,
  0x456a3b33fbe4f446U, 0x364dd4b381d9c4f4U, 0x4b8163c9cc312454U, 0x36394795aff6aaf1U,
  0xa1cd4d08de5aa9c2U, 0xd9bcd04fd94410f7U, 0xa4b1a98325f1acaU, 0x1011b24e7a37315aU,
  0x626abbfd8e90a61U, 0xa41ecd2abd9bb81U, 0x30bbc432c9f66042U, 0x32645481c91c16e7U,
  0x211e386ab0efb237U, 0x3644fd351b25fb1fU, 0x3ae74cb87f3d4f06U, 0xbab72618340caf3eU,
  0x1765efb928215907U, 0xdda9f51ff3ebc54bU, 0xe015210c54e3d0e4U, 0xe832cd3db52ab90dU,
  0x21153b0101f24U, 0x4eaa57b11b10227fU, 0x3da5e9da4512cd35U, 0xe1c03639ea4dd3b5U,
  0x2764983235a9e43aU, 0x698ad6a540a6b07fU, 0x23444591bb2dd511U, 0x211c68c5ddcc1a12U,
  0xd39d4bc57908f651U, 0x6d4c6e30d915a781U, 0x9b98f0209ce35a53U, 0x9271258152430be4U,
  0x501028d96336da3bU, 0x370c70cb2e237208U, 0xabdb54ed95f5a3bU, 0x3ddbddde4f122704U,
  0xfc7f1e3842444521U, 0xa6beb6021d53dfe9U, 0x2b2bbe1be5435d4fU, 0x49fef468e5c5a37fU,
  0x313e6027645d2b3eU, 0xa6b0525e0f5139adU, 0xff65b3234f828b3U, 0xb9ef0e1ebfba501cU,
  0x4bae154ab6aa9d29U, 0x5309b27f97471328U, 0x98395a7fe699b3a7U, 0xf0ab8e0badb54f12U,
  0x3ca6f2e93f8dce08U, 0xfeb4eb29cbff9656U, 0x5506444f7ff925a0U, 0xb9faca365011c329U,
  0xe73ce595614658ddU, 0x6f82952f2a5e9fdU, 0x65f27f066d9ed5f3U, 0x9aed67a95840fffeU,
  0xdef2e73ee2cbfbe5U, 0x2052dbed66d76f0cU, 0x2fadba62360892f7U, 0x9aba090ac9ad065cU,
  0xdbfdccb0abdf1b5fU, 0x4f7f94b0aab4d14bU, 0xc543196c7ee356e2U, 0x35989b0b16c0d8a5U,
  0x1507bd09ccd63d36U, 0xe00e783d0936b87fU, 0x33fa5a1fbe6d0e7dU, 0x218c1c6066a8e000U,
  0xe5bcb0a54a039edaU, 0x596fa2a004107f59U, 0xf70f3c428ed229cU, 0x7ff55ce95b0256b0U,
  0xcc65f7a76a5d3c4eU, 0x9d6943edc6cfc116U, 0xd237f9c2e97f071eU, 0x3ed2706727b7ad28U,
  0xaa299b356ce10e1eU, 0xaa044a5436ce97d2U, 0xffd4ddb2b27fe8bfU, 0xfe5ffadcbe71d47eU,
  0x358ccd23221b11cU, 0x17250521ddd1e4ebU, 0xbf5af539f17f5d39U, 0x95b308a5d7fe944bU,
  0x87af819e60bac2eU, 0xf1e132a23005702dU, 0x7f65c7fd6639eda6U, 0xe1f2bf2930b82710U,
  0x3705ec1f00b5c4ceU, 0xdad84b774418da4fU, 0x1bdb4b43f581ccafU, 0xc29216f3cbf117ffU,
  0x35632242b816febbU, 0x4656a5b038f5b199U, 0xc28b22a9e04107cbU, 0x7f209dcda92eb8f7U,
  0xffb16d0d7f0abafeU, 0x99b5d2d64eb14257U, 0x780946bf0f9f63bdU, 0xee0451c7cdc8cc04U,
  0x44a946cd03a57fe9U, 0x1509600f5c1e433aU, 0x8b23933db081b25dU, 0x18ec0239a38f045fU,
  0x3cb207e6dbefe3ecU, 0xaca51cc4a7d4d3b9U, 0x83a3cf982b2339abU, 0xb6e8e1370f81eab7U,
  0xbae295132e5efd4dU, 0x2081951ab3a3a5a2U, 0x4b9af97f45ae8e1fU, 0x131a6ef3622ac8e6U,
  0xa1869248d8e9c2d4U, 0xfd023e76b01fbf9bU, 0xe3da81fef767b9adU, 0x379a1eaa6d1a293aU,
  0x8df63b1fea96d4c5U, 0x2aa4549a639ead99U, 0x26f86ef9c32e29f9U, 0xfb1406b51dc6a1f2U,
  0x3a7f36ea3e62a0ebU, 0xcd2abfde15e1d471U, 0x166e32b2ace81b06U, 0x45681da1f72c5075U,
  0x780845dadf55ed7fU, 0xadc71c38f8a69645U, 0x399edff8f71c813fU, 0xaa62da325a0105b1U,
  0xff2b5833c7182c21U, 0x34fded9c253eda56U, 0xddf1acc603dd2832U, 0xed964fd3ab38bc7fU,
  0xf230d1e31902c3c8U, 0xdade12daa6134ac4U, 0xe0f19bb3e28d2c46U, 0xc4091fea43c3cca5U,
  0x17cbed84083b7fd2U, 0x3458fe91e009a920U, 0x7f1c3dc3280b0c90U, 0xdb07eda4d8fad1ceU,
  0xd465335f25a90c02U, 0x94c3bb5d35fd74f9U, 0x570227d2f919d8b0U, 0xebec1a34e6eded3bU,
  0x12e019f3d9201bf5U, 0x2bf5e7f37b0136aU, 0x8d139b163bb66681U, 0x313f64435f45ebffU,
  0x5d9117c71eabb0dfU, 0xe80424addd5ba1eeU, 0x54a109ecf1c06fefU, 0x9325fa4752475bcbU,
  0xf57fea1b98b63d38U, 0x6c3ad39d13c8e6b7U, 0x61401c593309c83fU, 0xefe1efe32da62f4dU,
  0x60d437099afda096U, 0xd0a80ff15ba8812eU, 0x810ef9d50affc31dU, 0xdcf6021bb4416ceU,
  0x623827e0af3c3932U, 0xcc2afb52a1d99e58U, 0x2934006b5a33f1a7U, 0x160d42bf5e293d10U,
  0xdfc80dff63237f30U, 0x360b227af00743e7U, 0x7f7c47277a056daeU, 0xd173161e8cf5c1dU,
  0xff35d8c0d5433fe3U, 0x2133df1608c6eb19U, 0x659d630e2dd601U, 0x8936deb7f7a94f2fU,
  0xa5df2c9caf3fd2ebU, 0xe7fa1a81c7b9d38eU, 0xded903ddb7ef014eU, 0xfe5a3197b18654a9U,
  0x7c6a069c5f215e6aU, 0x535781c71008b514U, 0xee0eb0e037b334d2U, 0xf51a11f44461ef7fU,
  0x4567a74544c98ac3U, 0x40b8d8424fcecb04U, 0xf8df126ce711fdb8U, 0xb9e816e77f9f506dU,
  0xeab197a43de2c34U, 0x9d20cb19402bb22eU, 0xeff3d3bd9ad8ef70U, 0xecd9f62489fe9e68U,
  0x3fbb565f1432ceccU, 0xa17f2d883be49dd6U, 0xa410cd81f92865feU, 0xad0ef12a0342023U,
  0x1f9ee4ca624f4301U, 0x2aad09791a3c4ed0U, 0x2a811948a0ce2fdfU, 0xbae5f24bfc9cdd5bU,
  0xc3e7644b3664e7b6U, 0xb4e9c1cf36a615feU, 0x7dadabaff6d21449U, 0x8c0d0cb2e502ea43U,
  0x1ca1281ab484f10U, 0x46658a06fcab1c3aU, 0x4834533b4c30b1f0U, 0x4d23cab3d8b76236U,
  0xbbcefdadddb25449U, 0xeefe1f7ff7e95bfdU, 0x7ff57c132f8b27d1U, 0xc599270434bebcacU,
  0x52b0fcbcfa6f2006U, 0x6c22db64c7fc58daU, 0xa11cc069891bdb89U, 0xf6eb315381ad237cU,
  0x8bb99b2231e8a8afU, 0x3fc8de74201af60fU, 0x14affffe261U, 0xfffff538ffffee91U,
  0x252b00000a8bU, 0xffffeee700002c0bU, 0x12ea00000b6cU, 0xe5700000a40U,
  0xffffe62efffffad6U, 0xffffef42fffff367U, 0xfffff59d00000965U, 0xffffe708ffffe8cdU,
  0xfffffba2ffffcc16U, 0xffffe98700003072U, 0x1ebcffffeca1U, 0xfffff541fffff369U,
  0xfffff10cffffea60U, 0xfffffbc0fffffe19U, 0x1184ffffeda5U, 0xffffee16000013a1U,
  0x3d400000305bU, 0x204400000a97U, 0xffffeb16fffffe2eU, 0x19dffffff51cU,
  0xfffffcea00001ef7U, 0xd93fffff1f7U, 0x7c5fffff42aU, 0xffffc825000001a0U,
  0x2867ffffdad3U, 0xfffff87cfffffff1U, 0x112cffffef5cU, 0xe68fffff7aaU,
  0xffffed6800000e07U, 0x1eb2fffff3c6U, 0xeb9427d5adec0bf2U, 0x430300c97f14eaf4U,
  0xa13a86f894e68126U, 0x92fd056aac257742U, 0xd36cdd9d62d1ddc3U, 0xf4f1c3830beadb35U,
  0xfd6c31d7d82d2c20U, 0x8921fe81fd8c1d6eU, 0xd1eae2a2cf15e0d3U, 0x88fd7f0bdf21ea81U,
  0x8104e0497fe325f7U, 0x93a27fedda130cb5U, 0xb06b42ee507fa35eU, 0x349c4fd4cf2729f4U,
  0xdd036bcbd0c22aa5U, 0x817fb90c3863b10fU, 0x35bfe681d681c6U, 0x4d0b523540f4cdadU,
  0x521e713d53aef14U, 0xf3813481dc7fcc9eU, 0x3725022c19bb8e7fU, 0x86817f0932a73244U,
  0xa8e4f1b50a20b381U, 0x2446653d81af38b2U, 0x32dcef7f16eb4a06U, 0x81ff98eb3036ce77U,
  0xc1917f75427fd77fU, 0x62610c71473b281U, 0x1c873250bf1349e9U, 0xd09b11417ac1cc2aU,
  0x6b17de9b204f8c8fU, 0xcec3ab24afb4b47fU, 0x13979a9b27fb87fU, 0xbff9185a271e15f0U,
  0x1bdcfe1f69beba7cU, 0x9f10eb2d0f0c48b2U, 0xa022401317039344U, 0x554087c0c0ca43bU,
  0xcdb1477f0de78113U, 0x1537771205498135U, 0xdce638fdeb2f1c1dU, 0x40d15d7f0dfef640U,
  0x3646d7eb36cc269fU, 0xf71cc2a7b46c3c06U, 0x8155e1d02cc86c96U, 0xe678f52881530b7fU,
  0x81ccf90af1d62395U, 0x8f9a75ad0ae9649bU, 0xc87fef2ec1f39d04U, 0x297f22cf0d7ff916U,
  0xbb2e296c79950b10U, 0x7fd7d91c7fb581bdU, 0x2a7f079fdaf181f1U, 0x41c6494908d54464U,
  0x181c1fafd7fe601U, 0xf256cd0ff9fb0c5dU, 0x7f1d2cccc9d8da38U, 0xb0689ddd381b7ff0U,
  0x6155d87f5decb821U, 0x370706fdbe3510bdU, 0x366e7ffd3014ec94U, 0x81602a7f94d4ec1fU,
  0x4add7f677f040914U, 0x2789a6211d810465U, 0x32627f17d4eb320cU, 0xf2eaba492007fc3fU,
  0x377fe45ef9b3265aU, 0x1fd6bbcb13a6013dU, 0x540f257f81d330daU, 0x3e01061bcd8181f1U,
  0xedcc117d5cc59b6U, 0x34b781c127ee0494U, 0x948fffffab2U, 0x18ebfffffefaU,
  0xfffff3f90000038cU, 0xfffffdd1fffff809U, 0xffffffd2fffffe83U, 0xffffedadfffff109U,
  0xfffffb50fffff56dU, 0x752fffffb2eU, 0x9abffffef33U, 0xffffe6ee000009a7U,
  0x76dffffe43bU, 0xa65fffff209U, 0xffffffb200000fe8U, 0x4ddfffff704U,
  0xfffffeb70000084fU, 0x929000007fdU, 0xe070000036aU, 0xfffffba3000001c2U,
  0xfffff15a0000003fU, 0x471ffffebd8U, 0x87affffea7dU, 0x54c00000d3bU,
  0xfffff4c8fffff05bU, 0x5cc00000353U, 0x6fc000016eaU, 0xfffffde9fffffb2dU,
  0xfffff6a000000296U, 0x6e900000d63U, 0x415fffff497U, 0x2f200000e7fU,
  0x21d0000050bU, 0xdadfffffd00U, 0xff6d2256af7a7163U, 0x27ab14969e4ad49bU,
  0xf86b200c61414065U, 0x412e74307fc90823U, 0xe4d5c3fb595c7a10U, 0xebbdce01eebcefcaU,
  0xd5686d1299e0261aU, 0x8110b2bac973ab9fU, 0xd72b242d46184d3dU, 0x199837fff5fdc6bbU,
  0x4e9c495063dfc09eU, 0xd9c351cbca567890U, 0x10e1194c45ab5b28U, 0x277f6bf99f0e14c6U,
  0xef56d59cb006c0a7U, 0xd7cd53e256eb4ae5U, 0x2f5f81f818ab37edU, 0x289cdc14d8c09a31U,
  0xabd6e1dc32c81233U, 0x10b73c4344bd601aU, 0xf45f4502069b3bb1U, 0xe2dbbbe324facf9cU,
  0x2d0657c2ba0db7bbU, 0x5dde4a2d4cafb4f1U, 0xef0ccf12c62cc24cU, 0xe1fee1cfcb9be4f9U,
  0x3e20c5971c323719U, 0xce454b61c916613fU, 0x2714cd0f04130755U, 0xf836cb171bd5b981U,
  0x548d4222311142fU, 0xbf326bdbe7532dd5U, 0xecc103fbf44f3857U, 0xa0f634df4b1dd846U,
  0xbf1055fe2565485bU, 0xd4dc22f1ea2fbcbdU, 0x34663e14299554cU, 0xf3ee02e2dd511d7fU,
  0x3bbbfe4e55cbebc3U, 0x4fccf71419da562eU, 0xf6880757f34e3346U, 0x5353dce30a04bccbU,
  0x433f073b7fe51c18U, 0x34edf4bc5be7d01fU, 0xd1f546f3315b10bbU, 0xb3f4c9aaccc2df69U,
  0xec0bc74ad56a10b4U, 0x15a4b019e8f3df3eU, 0xa2b3d581c3f15152U, 0x780e5d5513f06803U,
  0x5434c52e0633fe09U, 0xb92b08e1eff5f72cU, 0x2a310004bc434405U, 0xe4b8444a9f27b355U,
  0xc167f3e9652ffab1U, 0x66ad1c313bc72c27U, 0xc3ab2f107fe6c4b5U, 0x7d8cdc61532b2dbU,
  0xafada5d8a32a4989U, 0xdec32409bd541021U, 0xf62b3d11d0cef4bcU, 0xc0d63d53d8f12ca7U,
  0xd1bbfa36b23694aeU, 0xafa9c121ddc1173cU, 0x5bd477407f33ed75U, 0xb2b6a6573a1dcec4U,
  0xe266d03516470b08U, 0x37466d3b9c5a1d9bU, 0xc637b7486cf3a1eaU, 0x1fc12d76273141fbU,
  0x1f525d91c570586U, 0x199eccfda30fb1fdU, 0xcd1cb8b89ab5fbe0U, 0xb826a81e027fe820U,
  0x36f1adea63ac15f6U, 0x3e5cf2c3da0ae3eU, 0x15d7d0d521ce4b00U, 0xed5be3de4ae6d521U,
  0xa6b85ce93542b7c9U, 0xb5c4b608cd2a37dbU, 0xe1aec4f7e2cfbb9fU, 0xecfab8e8d4caf2ccU,
  0x5bd5fd92eeda09d0U, 0x3e27a9918eb9a7f4U, 0x11580b9a00eb3428U, 0xc336a8ff36c11bc5U,
  0x3faf251ba9ca1b62U, 0x3caba6f681dbe2f6U, 0xd43d0fa5416a0dadU, 0x3947a52e6d520eeeU,
  0x72fb54731eb19f1U, 0x1901127bdb4b17b6U, 0x264807f825202e06U, 0xe9feda81d5d6fa2fU,
  0x26615f08edfc3fe5U, 0xf429d9d3f1b7e51aU, 0x3129c43fea594464U, 0xdac5a79fc31646b2U,
  0xd372b6adcd15b3ebU, 0x1a4b7301e41c4144U, 0x1e0200a3d25a1849U, 0xf31b32243bd8eb1fU,
  0xe1185b79a7fcb252U, 0xe6713c39f47fb9f8U, 0x8f90113d755dbc3U, 0x4f5f08b7e29ab6ddU,
  0xf414f3fc0d5298cfU, 0xf7dbf9070a7e0903U, 0xb3a6f54150653badU, 0xb6a6f86574affae1U,
  0x2bf2b3e90261a606U, 0x819bd1de783eb918U, 0xebaa5ceb15a7cb09U, 0x48cf59c8673d10d2U,
  0xeaf3bd1cbb0ec8fcU, 0xb6a6bddbfdcfbc99U, 0xf963163c92414121U, 0x4737459fd81bc77fU,
  0xf1afde11c4f636e3U, 0xa4b5714051dc7d5U, 0xae11293213f14402U, 0xe1c63221edb91403U,
  0x1c4cc2f281d4f311U, 0xe823622fe95b11c4U, 0x1c2e4285500f364U, 0x4144540446e52529U,
  0x1732ce10e8acf10aU, 0xd5051ec730f91a01U, 0xe55be0b2f342be87U, 0xc2faa5e4d849f9faU,
  0x8139e7e181fce595U, 0xd3fd0ab22efc93c9U, 0x6d445772d58c92cdU, 0x4df2bee2acf2f4b5U,
  0x8f6549f6ee03ea27U, 0x9a426a56c8293c3bU, 0x9a3d3d788ef1ff1U, 0xc3fe4bc2c31b6b7U,
  0xdd8d400f1edd7e9U, 0x7d4c1c24dea6f4ddU, 0x2ced99b20b4bee30U, 0xf56243c315050e01U,
  0xad2dfb657fe4d2dfU, 0xd7490f0bae132f63U, 0x6de421d6b413df3fU, 0x316332d3aeeb2bfeU,
  0x5d6e07bee7e10adaU, 0x7fdf17c35c2e11f7U, 0x30ff05ec2354e82bU, 0x38f90fb501fe9f03U,
  0xeac1cb636df12ea4U, 0x1e60b21ace06dbc2U, 0xa1929dcd8fa0bbaU, 0x1fc3093816dec4f1U,
  0x10e0a7fa1246f230U, 0xbd17f6f40ec9185aU, 0x2d09ebc3feb803ceU, 0xcbcfd230f3ac00f6U,
  0x5e2cdaad7a53081U, 0x8babfc4e91b60afU, 0xe9241247b246d6c2U, 0x9ca8df5e53cd41b0U,
  0xf1a6819b6bcaea1dU, 0xa252cfcba00b20d5U, 0x57d22bfceef8fe04U, 0x5839d65667d1bd5aU,
  0xe3c8139b064ee1dcU, 0x43b9117607f3a9a2U, 0x3d11d7d4371dddeaU, 0x493beacc039f09abU,
  0xbfe41df0e60fee81U, 0x5da7bb0ad33a513eU, 0xf929f3d75b1382deU, 0x5a44c562c1f88740U,
  0x1258f047f73b31a4U, 0xef6337d0de3306c7U, 0x7f44dbbda1631cf2U, 0xec0aa3d4ce4fb908U,
  0x6abbcc03c6bdd0bdU, 0x29dfcafa560404d2U, 0x2fabf9f8971cadcbU, 0x2346a8d2144859efU,
  0x3cf6cb1d5dc42941U, 0xf31fea113a573f23U, 0x66af4933a9e83739U, 0x5fbe1f042781a5efU,
  0x4fe722103515f88cU, 0x1a30b508d9429326U, 0xbf8bc22aab6140eU, 0xd343ad68338ccfd5U,
  0xad87d612a43101bcU, 0xea37e51e1d0ce9ddU, 0x29d903c3b52a9856U, 0x4eea1dc11130edcaU,
  0x4b3999094c1aa6e0U, 0xec8be5bf19b11f9U, 0x2300ee17097f480bU, 0x2f070e0b321c01feU,
  0xc6e1e13f1d5dbe01U, 0xd5dbe75f295db108U, 0x4f38b4b715ebe339U, 0xcee1f936ce9b7d20U,
  0x3de03efe00f638b4U, 0x6a492c754b39c6aaU, 0xb908b7fafc2b46e2U, 0xf47fcacd17a911c7U,
  0x1cd040f8dd3ae0ecU, 0xfdc4554fc5cf9528U, 0xf6c54a2a07dee914U, 0x466d454d59695510U,
  0x215121edfe518137U, 0x1de44ee0e4cfceccU, 0xfec9ba553c8bbabaU, 0x352402541ea4761U,
  0xb5d7f070a3504adaU, 0x34de07a7cc3315f7U, 0x1f5d21e45a1f609U, 0x2b34d7d130af35d7U,
  0xaece0dcdec19d2e2U, 0x12cde220495607d5U, 0x402abcacf1be2663U, 0xa9c30b11a5e932bdU,
  0xa17f03aab5a13afeU, 0xd127001fcc4e18dbU, 0x20fee9246605f7f1U, 0xf23b1dd4da3ce846U,
  0xf003bbd6433ceff7U, 0xa8f3433410ad3820U, 0x13e1b6429fd494e6U, 0xa12df450d310cf9cU,
  0xf7032b01fca0c19dU, 0x4e81a6c39d459f9dU, 0x66edb037fdf03541U, 0xb368dbc8c0ae5329U,
  0x1734e4ebe63d2badU, 0x2247deeac11dc0b5U, 0xea04ad4d5c194de5U, 0xf77fcefad8fbd5b8U,
  0xf532113e6c1d6cd2U, 0xd5bedf7be013c941U, 0xd90ba94f92d507e4U, 0x51f8bfc320d56c3fU,
  0xad617f94707b555U, 0xbc3ce2f5dbda20e3U, 0xf4bdfcde7f044e17U, 0x324fdfc9320806ecU,
  0xf6d9cbf94665b9c1U, 0xaae221392707650cU, 0x8de05ddce1d4f7fU, 0x2b4420db05d72c2bU,
  0x73e2d1d3f29be0bU, 0xced0ce2065fa48b5U, 0x2826da3ae2c0a4c9U, 0xfce912c518d62d3aU,
  0xf92513384bc441c5U, 0x1afa67f5ee42dd3bU, 0xdfdd1859e8b8f66cU, 0x6e79db8eb45b71eU,
  0xbce66302bd29c746U, 0xddea2d51470ad2c7U, 0x1118dfded1ab23b3U, 0x586011920355bee2U,
  0x4adbee7f17255f22U, 0x4951f1ba152f0ce8U, 0x6d2f326009d0a54bU, 0xad34e9deace47f48U,
  0x9d0bd0ee212bbb5U, 0x3233664cd797b5f6U, 0x87844f091e4c7aadU, 0x14ed2f2c4f0f47e1U,
  0x63dee55a42f119e2U, 0x68060b66d4f9bf46U, 0x33f40a603de15631U, 0x10e3a0b1ede36c26U,
  0xbb508118f432d757U, 0x3632f1146bc34d5fU, 0x1b17d4f6e5b6d3dcU, 0xf7cc0dc6ed1fd555U,
  0x311813e2f1415adeU, 0xd21c5aac43fa0545U, 0xee2538ff6510e0f7U, 0xb9bcc39d03814110U,
  0x3a00b4fa93133febU, 0xbf0ed62727ed9ebbU, 0x338b65a8d7ba55c2U, 0xbca4f0fc4dbde2beU,
  0xe2ec45bef9a3e638U, 0xeec203db01c6fac4U, 0x2c4ba21d8dcac342U, 0xfb0bbbc39d1e134fU,
  0xe565182b03545a43U, 0xfb81fe23183a97abU, 0x36e2afc1ef37b3d5U, 0xe454cc2aeb641fe4U,
  0x98f2fd47773a4af3U, 0x4c13acda19c0a64cU, 0xd22c2b385bb33dc3U, 0x9e53fae25a61ea5U,
  0x7424c81bc03f107U, 0xfdd232f435422c33U, 0x6ea138edf9d3f964U, 0x131602ce97cbcba7U,
  0x2449af99dccec4f7U, 0xa7e220a7ee36bceeU, 0x2b25b105e05ddb2dU, 0x3e0738dcf8c83f0aU,
  0x4705b3e7f4e2ea12U, 0xd6eb3bccf2351e3dU, 0x2114384126352cbaU, 0xef44db0e5eb42904U,
  0xd2ab2f859ece402U, 0xd231cb05ae7f1dc3U, 0x24fb4d9e27f3f38U, 0x14260c37e03b32c9U,
  0x5257c70c6e0bd047U, 0xc0e018af2da65418U, 0x5800bac5d9b22d3bU, 0x35741f2772b9e40dU,
  0xc0f03150c1b3942U, 0x514e69d6bcf4101cU, 0x9e26f12e1a553eaeU, 0xfc2cc4771d0688a1U,
  0xd385e9a4d07f23c0U, 0x454415efdde052a7U, 0x5d1918ca6fa2043fU, 0x5253729fa101f63U,
  0x5a1466bdcae96e96U, 0x177b3bb8edd635b0U, 0x5642be2b31fe7ff1U, 0x1e8fdf60d434d154U,
  0xa000e2bfd3e0c432U, 0xe3ebd4220de1a2faU, 0xf4aa4d9aac95d69cU, 0xd02ac6fc960a1ef9U,
  0xe13f1b2bf8baa616U, 0x21bfbcd325c2364aU, 0xffee71327881f0eU, 0xba593326c6a105c2U,
  0x25bf30e5363ec7f7U, 0xe5deabd845636c3dU, 0xa4a400947defadaU, 0xae94de5a0933f659U,
  0xf7015581c75e051dU, 0x293fdf1ecdc447d0U, 0xe80311a7381e13a6U, 0xf7aedfaf6b48f720U,
  0x1aaf8f87229a0965U, 0x5a5aaff75b70c545U, 0xf35ff6852448947cU, 0x1ec632814a5b2238U,
  0x5d7bafcaead43b3fU, 0xd861b907b3c083a4U, 0xb90c07d08edbd4eeU, 0x2db47ffd3bf0e22bU,
  0xdf6d7cfe5affcU, 0x24bc6dbab42ce00bU, 0x492aefccacd838U, 0x6d4661f4ce2c004dU,
  0xe0eac4ffeb10f4d4U, 0xffcf3abb6c70a0aU, 0xba1ae8c3c50449baU, 0xa25f6170fa11405U,
  0xc431daf239cf1414U, 0xc412ad41a064aac7U, 0xcd1c0259d202d07fU, 0xc638cf2702f94beeU,
  0x33ade2fee2f7184aU, 0xc018342bcfb3ae09U, 0xdefc13bea625c3c6U, 0x2d0ac1dcc00081d2U,
  0xfe551fe211afbeafU, 0x1eff67205759110dU, 0xef2130a8f271ee00U, 0x369d5637d61d5ad8U,
  0x5ba993d9d614c8eaU, 0xc1a1f3ceb88cb009U, 0xa94707186649f022U, 0x3724f93b1e3c1d20U,
  0xb3a0531738bfdd29U, 0xaa5cb4f541f74a93U, 0x97126f1ec2081e81U, 0x5a670b16d2e8a7faU,
  0x15dfe6d1398b1ea9U, 0x57fdeae7d4f759f3U, 0xc8fe3628ef09d56eU, 0xc220f7e1bf7f40f7U,
  0xfe81bfd160237f0U, 0x274edfc71abe5bedU, 0x19f9f1d64cb5e156U, 0xdcebe3f027a8f9cbU,
  0xac53ea3a49280537U, 0x3ac75d1f24329bb9U, 0xed33d0eda20c3b15U, 0xd5662ed27f33503bU,
  0x3600d0fee48fa04U, 0xebc3c326cfc1c9a7U, 0x421e8a1ae753fbeeU, 0xd3e0abb0e094bff1U,
  0x6a95b53057223063U, 0xda638f2ceae101c3U, 0xec3d1808423ad0a9U, 0xf4e6223c18aace0cU,
  0xd4ecbdfd5a8b50e9U, 0x88bef458ca392a45U, 0xc2dfa1c9333c3915U, 0xd140ebfcdfbcf9U,
  0x236011ed2e494f27U, 0x2dc90f31237fd526U, 0x53eacc460b48c04dU, 0x43e21883d3c5f3dU,
  0x3d7f57b2adf0c505U, 0x53c94409c65650fcU, 0x3c2f2ddf02323afcU, 0x172318e03e03d536U,
  0xf7df953db4cffb4U, 0x28d43eb8450bb0a6U, 0x2e957fd2522d5a6U, 0xb203a4ba30dff0d2U,
  0x9df0d9a2dc2314b4U, 0xf11f12edd2fa4201U, 0x273b191c70c72335U, 0xfeb481182dfdb2d5U,
  0xa13cb0864e476339U, 0x41b226cefeed3da8U, 0xe80011175c6df818U, 0x4b9f37fea6711eeU,
  0x309e402b6cef4f0dU, 0x2f00b0001e63c17U, 0x36f32e46b54b5ac1U, 0x43fde2c5acfc8d16U,
  0x543a673ca72038d4U, 0x8c10db5e0d008f35U, 0x561db3b7b75619daU, 0x187fefe3fcd1df0aU,
  0x63feda67dfdf30deU, 0x1b01ea13f846bd95U, 0x2c3a2666024ce3f3U, 0xd54b01e1af069c0bU,
  0x762f35ea3ea82509U, 0xfe3212f9225fff41U, 0x23fd3cf32566c726U, 0x3830b4a724272aceU,
  0xca2b411242b71544U, 0x1d2afa01e325c5dcU, 0x2a00e708196725a3U, 0x2206091b1ab85615U,
  0xeea4357f35f75039U, 0x26c9142dddf60004U, 0xe339be29c510c6a7U, 0x44b2cec352dca0f7U,
  0xb130220422f0e841U, 0xf7b8ad19ebaadf3bU, 0xe2f2ca62d3a7f5ccU, 0xce2f4c3e4531dfbeU,
  0x35ff32ddb492cc9U, 0x1b681e43ce2c7f35U, 0x6e7d8b90de8c35fU, 0x9ef2e15ef7e9b34cU,
  0xf18c652df5500edU, 0x15b4927ff14457c1U, 0x4248aec549a74221U, 0x8f5ab6482be64531U,
  0x42decf5a8c2f82dU, 0x9f1c2c9c39b9ab3fU, 0xde0bf015296f21c2U, 0x24da2628c35aa817U,
  0xd55caed9191d2d3bU, 0xa5b132034914d55dU, 0x3ef128ee3097b501U, 0xa43bffdf097f59f5U,
  0x4931e058cb460d49U, 0xafa653324c031c64U, 0x3dca2be7d4dcd916U, 0xfd59cfb0e86658b2U,
  0x4468f5033fc226a7U, 0x20b7141d1f35dffaU, 0x1c5589e5bd0cc5ccU, 0x6a7af7c39fccbb27U,
  0xa302f17f5e72d831U, 0x3e0f05a311db401U, 0xbdba253a3bcdbd91U, 0xfe9ab3bdaff34cbaU,
  0x410ee1dc259aea42U, 0x88d5a5f1e9cf81b2U, 0xe30d4019d32bf06bU, 0x241904c1f3f742caU,
  0xbc8fa8956788b10bU, 0x4e51194b3928ab49U, 0xc2a75e6d7eefe26cU, 0x50cda99b1be20767U,
  0x5a29b5fcd36139c2U, 0x926d25e595ca7a4eU, 0xd6b90f40ce3a00e2U, 0x1ffdee5610a0dfaaU,
  0x7fb84863e7d4c0f4U, 0x763f57952f42ba0eU, 0xcffdb0b3ceaf32ffU, 0xbefffedbd369d5fcU,
  0x1d1ee31c64f434d8U, 0x1a4a54dbcdf64b0aU, 0xb1ed24132e443d75U, 0xe60828da26fd6b7fU,
  0x40d4bac6fa1a2815U, 0x1e1414cd0dc2f6a9U, 0x783912e8ec9b0560U, 0xc37fe212ea2f63deU,
  0x36fdc631d7b0d70dU, 0xe367f8b24c32ce3bU, 0xc1f6e8bc115c9a8eU, 0x6e45d41863152d2dU,
  0xc22d4b6ce0184ac0U, 0xebda43d14e03d644U, 0xfffff349ffffe088U, 0xfffff0e50000190bU,
  0xffffeec8ffffce45U, 0x4795ffffda4fU, 0x2960ffffda1fU, 0xffffdd9300004a84U,
  0x1173ffffde37U, 0xffffee3900000a32U, 0x9ee00002fd5U, 0x3739fffff3eaU,
  0xfffffef700001e33U, 0x254b00000395U, 0xfffffdbcffffea74U, 0x1e4cffffe1f6U,
  0xfffff0df00002c43U, 0xffffe5a1000001e3U, 0xffffe39afffff695U, 0x3e3bffffe79eU,
  0x26ef00000530U, 0xffffd1cdffffe896U, 0x29d8ffffef28U, 0xfffffa8fffffef24U,
  0x189000001e1cU, 0xfffffc6a00002acfU, 0x1211fffff065U, 0xffffcbffffffee88U,
  0xffffd8d700002009U, 0xffffd5e6ffffe1b1U, 0xffffffb30000043aU, 0xfffffd3bffffd4b5U,
  0xffffee2500003f8dU, 0xffffe14dfffff230U, 0xd681e3901e5d9e8dU, 0xe0bd0cc72e7ffedeU,
  0x4a7f4c9cd0ae09ffU, 0xc79a070625192efbU, 0x5a81b4e2e7de0981U, 0x811c24d5ed2d992aU,
  0x6f777ff5ad8181eaU, 0x67d78e9927f34208U, 0x40fb50c07f7fcdb8U, 0xfbc84c6a7f4c27efU,
  0x35c51d1c5b03ce03U, 0xd2b4aaa616693450U, 0x4e3de981edc3d1c2U, 0x135c4d234406197fU,
  0xd832435be4ffe31bU, 0x7f1ffcea50a9528fU, 0x1f0286023ee45eefU, 0x428ee27f3035473fU,
  0xbd75d9e4bccd21bU, 0xc4bdffbec7f3666U, 0xc1cc13d2d90b0104U, 0xf874504efd941d7aU,
  0x47c1dd4d27292098U, 0x3781ce023d3081a1U, 0x81d1ba3c484fe23dU, 0x7f7fdcdd50fa1e96U,
  0x1f67d10e7f79bbd4U, 0xb857f1cf755cfd6U, 0x7f30fe0bc9097fefU, 0x236931e55b40d6bfU,
  0x1d76fbbf085fe12U, 0x1056b3b7adcdcaf5U, 0xbd98b91f62d5e481U, 0x6f9efb1744d73081U,
  0x7e685a91c7ed0dfU, 0x7f94fa8141f87f01U, 0x4d57f29b149f34a1U, 0x128170b10ae00cc1U,
  0x59fae9fd4ae8ba7fU, 0x3ef7f5da38fae695U, 0xfeefc36354ccd60dU, 0x50e9075b4939a80dU,
  0x7ff48e0a11fd4f8bU, 0x7f4d2f49b6347b7fU, 0xc4ef2e858181c09fU, 0x8381b08b9cff0e9U,
  0xde5e5e260afc4d9U, 0xbbc51f817ff455aeU, 0xd0be9053c2829f3bU, 0x21c453a6bde181dcU,
  0xf33be2c4070ff400U, 0x31814c382f00f4efU, 0xea447fa6440f1f87U, 0xb1e7fcddf2f97f6fU,
  0x12c7f089503dc620U, 0xcc563554facdff26U, 0xb539817ff50f1a09U, 0x183981b4efba9a2eU,
  0x4e5d968173437fc4U, 0x458f773c7f15e1bcU, 0xe9284059a1c1d1c5U, 0xe4e1e186811e131eU,
  0xb881e7817f2cf73cU, 0x9afc8139e2819cc2U, 0x3b33d5fe226581ceU, 0xae960fc92592c2a5U,
  0x54c281fe3d7f5a81U, 0x9fef406a4eb42ae1U, 0xf81d2124e01c09aeU, 0xf1998181f5811344U,
  0x81d5341931adb5a3U, 0xe625af92f7073681U, 0x10cb00000efeU, 0xfffff24ffffff7f8U,
  0x193afffff69fU, 0x105300000ca5U, 0x86300000d7eU, 0xffffea52fffffba6U,
  0x5b00000370U, 0xfffff15200000f26U, 0xfffffe8e00001082U, 0xffffe726fffff5ebU,
  0xee800001364U, 0xffffe9dffffff970U, 0xfffff206fffffc13U, 0xfffff568ffffef10U,
  0xfffff3befffffd0aU, 0xfffff80f00001f53U, 0xfffffc4e000023b2U, 0x127200001080U,
  0xfffff8af0000183cU, 0xfffffbd0fffffa7cU, 0xfffffe34fffff0ddU, 0x2ba000006e1U,
  0xfffff3b10000125bU, 0xb32fffff967U, 0x19220000001dU, 0xfffff5e100000ed0U,
  0xfffff41d000009a1U, 0xb40000094cU, 0x5f00001e69U, 0xfffff8fd00000c6cU,
  0x119f0000122fU, 0xfffffaa8ffffff5cU, 0x1db206b1ce516d3fU, 0x2030f08920166612U,
  0x9c57f25f409fe98U, 0xbc70e2e70ded1a4cU, 0xcf3bcbe9a446abebU, 0xa71043530e14c825U,
  0x3f968a088ee00af7U, 0xbcb6b219370ed8e4U, 0x242f2902941e2427U, 0x3a1a3b1b37a24ba1U,
  0x5cedeeedce44dc5U, 0x81f20cd12cb104bfU, 0xa1aa4119a5b7c117U, 0xcc2431eacea642dcU,
  0xadedb640de440a05U, 0xc7bf07a35243f7c7U, 0x6a6c54e1f7bf9cccU, 0x1117f3d3f14fd2e6U,
  0x220a0fb5088cc43fU, 0xd0acc639e66f09d3U, 0x3a18ae33d79b49a0U, 0x9bea6dcd0a9ac049U,
  0xf1077f488ecfc921U, 0x480e3169e8e20498U, 0x550dc1d1d3451f9fU, 0xfae036b9a266d464U,
  0x3ac729fabf06fc3dU, 0x162dea7ed80ef428U, 0x89e6b87fdbb344d1U, 0x55ca0a09c236ceefU,
  0xdaaec71fffca6251U, 0xe5bc95faad0dd750U, 0x2ef1e5111c4cc0c0U, 0xde2dbcedd535d42eU,
  0x50c73bda46b91aa7U, 0xf5b1eff9de2917eaU, 0x471c37ec5ca039b6U, 0xcbe80b140dea2fb5U,
  0x745ccca23a4acb6U, 0xb41afae57f8a2be4U, 0x62b2567f69e85c68U, 0x2e08d7ee13a1d035U,
  0x135a1925d1f0e991U, 0x7b2142f0163733d0U, 0x34dadbc5f05e61bU, 0xc2686312470ed1f1U,
  0xd3a814c3f35c49dbU, 0x9e455d716a9bcfd2U, 0x5ac5b22901b403f4U, 0xfd2d563ba8ebd300U,
  0x2957164db369c826U, 0x7f24084350fe4cdeU, 0xba6027b01da301d4U, 0xd1a5ce30dbc2ce0fU,
  0x143fe441322aad40U, 0xd8f31df9cf871298U, 0x156f2e0bacdd1e1U, 0xae614f45f5f5f6f1U,
  0xb72521ec5cba2fabU, 0xf3d64b970c8808f9U, 0x47d0f6e4adcd2402U, 0xbc2307ec15e3f3caU,
  0x8121c96003f165b0U, 0x9fd107c6abe5ef37U, 0x4e7429f5cb143b5U, 0x47b25d1903a365e9U,
  0xb4d3f3bc2bfbfaacU, 0x18dbbad2c27f24eaU, 0xfe415ca3c43c1f7U, 0x6230163d2033b40U,
  0x3e073e0a15b536c8U, 0xe333e50bc0234a0eU, 0x9e52f1ec06d48c0U, 0xcca00c05e6ed1f9dU,
  0xea366eab2caddfeeU, 0xe298e79d18b69adbU, 0xa83197b150442b22U, 0xedfdc4422520e2baU,
  0x24e40b39d5f8d1ccU, 0xa66d177fbbc8c402U, 0x5cdafb36fa12475cU, 0x21f0cefe7796f903U,
  0xa9f81500bb0cc6f3U, 0x5eaa3cee03ac627U, 0x2bb7f49d6cbeeebU, 0xb40a846cd93ed539U,
  0x42576c7543607c0U, 0x3a1066e95ba3b63cU, 0xe1faff23cfe8d7e9U, 0xb7fbdc494e1161cdU,
  0x251b343311acc9f2U, 0xef622c27f91c2437U, 0xd06d0504bd18cdcdU, 0xe41e040641e90400U,
  0x290df33358d6ca62U, 0x324ce6c57ff9f2bfU, 0x12f7024351b28d33U, 0x2e62c05d218cf89cU,
  0x4cdd3dfca2aae6c6U, 0x4fc5eb2ffb0749a6U, 0x472e351a28af3181U, 0xc6e9d13a4f26f5e9U,
  0x1a333af7a3aac4fbU, 0xf373938b0e76347U, 0x1967942381f9e51cU, 0xcf8c4307d62c4b14U,
  0xd9e3d43b26f3e456U, 0xfd0247ba43cc554fU, 0x1158393653abc31fU, 0x5af1fe1582a4d6f4U,
  0x3dff06c35528f331U, 0x231c1b6bdbafcbadU, 0x1ccee1347bda2d0cU, 0xe7fcef5bc6d938d1U,
  0xd1f3130fd92cdde9U, 0xd640b937e4621550U, 0x7ffadfa9eaea11a6U, 0x1902f4c5e6ab3815U,
  0x48d83eb31845503fU, 0x2d48a729f7baeaa6U, 0xf8e243ca0d392925U, 0x5d112b5203d2521aU,
  0xff114422f3ff0cb1U, 0x123db5353b3aea40U, 0x500eeeaf02f6f0ecU, 0xc31829b511f9cff7U,
  0x634703bd343cedeaU, 0xb5292a7f560d5902U, 0xe43b8dfd49bfc9afU, 0xa69d96b941fddcd1U,
  0xfb380ea465cd2903U, 0xe627135048494571U, 0x1f5a81b2e74f921bU, 0x2dde08c63f0cf609U,
  0xf1ce4f864b98275cU, 0x45fdf709fa262f5cU, 0x57c3b7d4e49a4240U, 0xeb4b166a3ddf32d4U,
  0xb7fe4d569f0ab61fU, 0xc7bb6cbaa762f6feU, 0x7f00e2e0e5b73331U, 0xe1b4e3010bf74cf8U,
  0x3d05021f70c910c8U, 0x95352f3c13b1ee1U, 0xef262de934dbb65aU, 0x1f073f4e139a3b4fU,
  0xbb5f435fe2df3030U, 0x760810df057ffa10U, 0xda0dc5a0db5e39eU, 0xa0b433a452de26d3U,
  0x57a3da2fd6c9082cU, 0x562bfb6738f42f35U, 0x2fd1107ef9c519e3U, 0xe1e76edf1b9717b7U,
  0xb7cba9f8509dd02aU, 0xeb3b223e03478151U, 0x9ef836f562eba350U, 0xfcfaa0b62ddf9bd3U,
  0xa44acfd03c652c54U, 0x5eaff4f9030c052dU, 0x2101fd46be68d421U, 0xe616fd66926eec7fU,
  0xa2e746cdb1d405d4U, 0xcd09db09be071556U, 0xfea0381552e342f3U, 0xe497adda15ee49c7U,
  0xe4c3bbdd5fa559faU, 0xa2eb51c7254b12deU, 0xe0c05ca6d91fe13aU, 0xcfc2fa81bdcdc50fU,
  0xdff125ee0df3edf1U, 0xec04a3ddb4cb3a30U, 0x12e9e5341aedebd8U, 0x48deb7e42827ea34U,
  0x9be43cfe282d3bb5U, 0xbbee2714c6afbde8U, 0x4aeb2808c0f181c6U, 0x26c8c510a93df63fU,
  0x7c0a3effb6f2da4bU, 0x29fe1f3b04b846cdU, 0x5af50eebb7bbeaa0U, 0x233ef1aacbd798dfU,
  0xf9d737cd3e18a360U, 0x391bc402fa891238U, 0xf21b3951e0220eeaU, 0x940bdfee084bb9b2U,
  0x5556e51ef27ff7feU, 0x10bf2f3b0d0cda25U, 0x485ccef32e4f44U, 0xefc3a9ddce321beeU,
  0xb959a460ed6d32fcU, 0xfb2236b69068d511U, 0x239eb0c7fbe6740cU, 0x2e03a941dec7f4faU,
  0xe34ed23914da342aU, 0x9dd842eddbb581d3U, 0x9714441fba5524c0U, 0x4aa7f03afaff3114U,
  0x15fb2d1f19d9e545U, 0xe2b204d3a90134ccU, 0xc23a2044f0034217U, 0x6dc9ce2f2f4b45ebU,
  0xf10a1be1d8e7d52aU, 0x5aa6c3f6297f73daU, 0xf6055532e0e63208U, 0xe812a5b6e50a28c1U,
  0xedc45ca06a52954cU, 0xd608b72769c352bdU, 0xd11c51e47536bb45U, 0x4af7015f03729d7fU,
  0x30b5f51b1a3de2f5U, 0x3fe2d7cc5af6734eU, 0x49503b1532eff648U, 0x4ebf28c7e5e00708U,
  0x51dbfc562bf7054fU, 0xd8fa16550b373daaU, 0x5b4409e34545633eU, 0x30f704305d4568eeU,
  0xcc1690314a6a35f0U, 0xec131b252c5e5140U, 0x1e40f8842ddfa4cfU, 0xaf592667194a9db4U,
  0x1e9e43d2d05117bcU, 0x707f7dd212463c64U, 0x4225fd20adfafde0U, 0x33e3f816d4cbd8b4U,
  0x2c6fcce8b1172bf4U, 0xd0b934f1d3e92a81U, 0xc5f0c0f9fafcfdceU, 0xe6defe1a3c1405e7U,
  0x2822bedee9dbd40fU, 0x24fe16eede11d632U, 0xcad5363d0a60df82U, 0x20538b3814e1f910U,
  0x11613b613319dff6U, 0x3345c9fe30116a70U, 0xe7bac4722eb58120U, 0x9522aad144e02af6U,
  0xbf896439d6e3f264U, 0xc972a7b619539ab8U, 0x5934e4fffa19c229U, 0xb3ce0ff0d55b3225U,
  0xf024afc4a45aedd4U, 0x1cfd01fa141568d2U, 0xd212dbd2dbea09c3U, 0xf4e0e64328d4a0a2U,
  0xd756011e76f0b8d2U, 0x503abe067f37f2f6U, 0x25d2f2fd7faedd9bU, 0x2317d71f34090927U,
  0x3fe1e141ea042040U, 0xe9104ad9cbc2e6cbU, 0x305aff23e0cf20e6U, 0x2018e4fcf89a4ff5U,
  0x86e2fdf4d9db2fddU, 0xe9dde939f8016038U, 0xeccf097f3efc3bU, 0x4f03b7f546d02516U,
  0x2d90bcf16f103feU, 0x313bacbcf6deedeeU, 0x542a1fe7523fc523U, 0xe144dbd65c4cf3f5U,
  0x543b5b4f4825d7dcU, 0xb2106bffb54c3d7U, 0xeaf32042980f59d9U, 0x13e8ff0e2c00a5f6U,
  0xc7c845bdeadc02U, 0x14819995de388c27U, 0xd138ce111bf0aeccU, 0x962f34dac6e525dcU,
  0x21bac02bc235d28cU, 0xad3f42ca1167f2feU, 0x4a3df350c7ff0a05U, 0x7f273e54650ae611U,
  0xfd1bf1fd48e5c7d6U, 0xd9d00433dfbae256U, 0x44c7e0bdc50bbaa2U, 0xea1923d5f1b3c922U,
  0x405b00a94127eefeU, 0x2dfc2c49ec2e041aU, 0x3cc17f6e081c508U, 0x48fff5398f00cb0bU,
  0x692a90b9db715010U, 0x559378f3e694e9e6U, 0x73c4404494f9bd1U, 0x705c1311c0b207acU,
  0x1591f23b04a8e0eU, 0x3038f815b7ebd749U, 0xafdcca4d87ec495aU, 0x30ccd39ccb26ef2aU,
  0x30d0ec302bf03b58U, 0xa7e43f9dd544420aU, 0x81dc1017fe210743U, 0xe44dfb1867b7ef4dU,
  0xde350ba8f4030c42U, 0xc3f2adc8eb37e594U, 0x5bc4151b26c4110bU, 0x230c470ba9c5b1daU,
  0x42e91eb230fc163aU, 0xf1b9ca19c40bc02aU, 0xfa2a91a6e0cbdbb9U, 0x95be02c1f2671481U,
  0xeb2f45b29a322ef3U, 0xca14f6e6481edaebU, 0x9319460c7200dae5U, 0x700fe55d11e65730U,
  0xd8f7aeddbbbc0ab9U, 0x47fd264f3e3a39e4U, 0xff257fb3ace9f3bbU, 0x649d2ee90ea547b7U,
  0x6f08f8463108094cU, 0xda5aff53e4311cb9U, 0xe1bc69b516ec0f1bU, 0x5a48f62e11e90313U,
  0xdb06afc1065adb0dU, 0x61a80a1933cb4ae9U, 0x4418deb1172f4c25U, 0x49330a2c1a81f8a6U,
  0x4fccf11936ed3f24U, 0x58d0592d12aaffd0U, 0x2ee3fee007fb644U, 0x1f2c32d0bdacc198U,
  0x9c04a30646da1b9dU, 0xbf6b5a1329d6e5caU, 0xfff91b4d8549f9cbU, 0xacebca0d4744513U,
  0x272e9af428d1fcd8U, 0x5ab625c2f959dc3eU, 0x141b154bb7a8f573U, 0x1ca8155b7f40dfa8U,
  0xd255ebeef41a4818U, 0xadea0633f546f210U, 0x21c652050110b64fU, 0x6fb916dce6e7f7c1U,
  0xefd52e53b42852c5U, 0x3aa1e8ce0d20ddd9U, 0x1444aab41dabd01U, 0x6840db0a2306c712U,
  0x112ad2e6d1c2a401U, 0xaef881b51bf922e4U, 0x59651df6e9d5acbfU, 0xecaef8b51a41f0a7U,
  0xb34c390e2a10376bU, 0x290015203bfe12e1U, 0x17e62727f0f2d9a1U, 0xf3e55c86a1c1a9ddU,
  0x6c0822cc1fb5b7f0U, 0xaf3ebc0e074e131cU, 0x87beeca2e34520d9U, 0x47ceaf7f3ac60755U,
  0xacf8e8ec01c442f9U, 0x23cce5d5f512c41bU, 0xf8d0d224e49dc496U, 0x123aa5207ff35202U,
  0x3bd551d04cfdd5d9U, 0x5694ca582567192cU, 0x3b31fb4838b92f29U, 0xfd1613eb53eb031fU,
  0x45eb5509dfa61efcU, 0x6c012604022e3e1cU, 0xc49f01fa67e7128fU, 0x662908414efd4705U,
  0x1de6a412d18b9db6U, 0xc701f3fbe0da0339U, 0x349f15ad0951d007U, 0xd7b36ad9a91127fcU,
  0xe7c5b1ac0aa87f42U, 0x4d3863001e1719baU, 0x28ebcbe8dca9f45aU, 0xe2fa3630e230e0f4U,
  0xb244fac7ab658134U, 0xe6af45b94128941cU, 0xe368b61ad5fb540aU, 0xc4c8a54a2f1ed61fU,
  0x48b517c2f3062d36U, 0x1d3bc9cc9327604dU, 0x5bcf0d2bc90dee29U, 0x1ff0202004fec815U,
  0x40f3fef0e97fb340U, 0x2f3006f401f3e8dfU, 0xff12727ccb65bb1U, 0x1923d86103e3400aU,
  0x3a50c5d0faeefa06U, 0x2ed8c85c01aeca1cU, 0xb1cc4b8e384c3537U, 0xc695e91ff34ad8d4U,
  0x7fceb9a5d5e7a7d3U, 0xcf1de718c4071630U, 0xb1405ff4717e141U, 0x5736304d3351bd2eU,
  0xb4d2edb0b0e52ed4U, 0x2b2e13bba5ef094cU, 0xc91107e8bd2d58b8U, 0xfcf9d7eb11e700deU,
  0x48f5d513be5a1a46U, 0xde8ab0fe33192db2U, 0x5d1be00ddccd3618U, 0x5a15f0d8d66dcaeaU,
  0x5529e5ee061ad3c6U, 0x3e4d024c7f49fd4aU, 0xcf2e28cd43c1f5f9U, 0x9cc1ad51b20f1d2U,
  0xedba29bb1f952c0eU, 0x721d0f32dd5d4e0U, 0x81b52b1abaf5fa33U, 0xf5e71808dd0bf1feU,
  0xf3c6c4fa0a0ffca1U, 0xde9f02de85f315caU, 0xe3a5f7d851c28245U, 0xc78d47ea5f38f039U,
  0xfc47ee3d1ed0df03U, 0xc19afa280a3d6a67U, 0x32369d4e2be1827U, 0xf698eb00a8a93d0fU,
  0x7f062ff533b4f56aU, 0xcc05cd300d2fec4aU, 0xfff081123addefa0U, 0xc2c81b480049eda8U,
  0x63caa1e0362047e0U, 0x82c04edbbee3300U, 0xd2a80ce534e9c2e4U, 0x2b343302f9af641cU,
  0xe8ae8b2e061f28e4U, 0xe9455a41d2c819bcU, 0xd6472af105354319U, 0xeae4c224c245cc90U,
  0x15b81018427fe556U, 0x62ce20a712c554bfU, 0xff13b503209d8ceU, 0xedbee610aa5028ccU,
  0xb7a2c0ce1fefc2e0U, 0x3cb8e2bc27cdbb53U, 0x1ccae8f04afc9dedU, 0xd80134e5213e1e07U,
  0xdfe4d1beeabd0ed5U, 0xc40d28eb03e71340U, 0xfef9ebbb41b7cfffU, 0x21bedd221a2f1d1bU,
  0x2427ef3307a423daU, 0x53c54048d3987ff9U, 0xb4cf379d1ae7ad4eU, 0x2aaee3a7dfe638cdU,
  0xbf3f45e97fecb846U, 0x5930f8e63a9d35a7U, 0xc1f107610c06f663U, 0x11ffa48fad36475dU,
  0xe05092faacff2b0U, 0xf30a1335c62e5fc9U, 0x111abe397241e3b3U, 0xd800a1dcc74eff07U,
  0xdb53834feac35493U, 0x52e0792d165bb534U, 0x63060e26bf1fe9d4U, 0x61d44d9f36beed7fU,
  0x13603d9ac20c07dcU, 0x4d2ec212601ecb25U, 0x3739bd78e5eebaf6U, 0x3bcaf2009ccfeaffU,
  0xb40d1129c9fc3453U, 0x4ccbeff4ee0e1c0bU, 0xd9f6cc0459b50437U, 0x43c4aa097f56e20aU,
  0xbf1d36594ab6e100U, 0x744f6114121d234aU, 0x5ae6d5cc3bd051f5U, 0x363c2c31e659e4beU,
  0x2fc0d407e820b6f2U, 0x53e412ace5fe7f12U, 0xdaf8dcb221eafa48U, 0x2b3aeafaaed7bbf0U,
  0x2696453ed12a3938U, 0x64cfd2422d9df6aeU, 0x5724ca0420482f00U, 0xc43913c7c9c6145cU,
  0xf2c9f02507480f81U, 0xb416060f4c375cacU, 0xd0375cdbfa4c401aU, 0x1cfbe44af20b0ffeU,
  0xe1d7dcea07014836U, 0xe4170d2321120401U, 0xc49f5e983ae949d2U, 0x34e517d16ea8d33bU,
  0xb901df36afff27c6U, 0xf50d3bb8290d4dfaU, 0x5e22fc9de6b9a081U, 0x833825294495d2a6U,
  0xda4a0de529113829U, 0xb07d76e71690cd6bU, 0x534601223a1eaed0U, 0xdaf81b1c002620eaU,
  0x4feb022ac6bb5d55U, 0xa68e09dcdc3d4bcU, 0xeebfdebcfddbfae3U, 0xfdff31e40310813aU,
  0xff25e22e0fe578ebU, 0xa803060365e99fdcU, 0xa5038bb66d2e7c6U, 0xf5f52f3627b717e5U,
  0x81fca41006c3cd1aU, 0xfe2dd5de44a62ce3U, 0x36eab207fcdc44a3U, 0xda11f42a4105ef9eU,
  0xe8deb151b50f32eeU, 0x1226db260ac51353U, 0x7cba172541ccb8f5U, 0xf6ecc741cc28fa23U,
  0x4b18cf22a2b197c2U, 0xc4e51fc8d15f3b25U, 0x75d51cb9f439493dU, 0x3567acf7242f121eU,
  0xd0565646f0b338d1U, 0x7f4fdbddd00987bdU, 0xfa11de8c92b2e034U, 0x12caf34c1403c5f5U,
  0xb0d72d27e4e08150U, 0xa31ece029ac5e84eU, 0xbd39d1f7f9530d4eU, 0xed0dfe4b13fd1210U,
  0xbf632fc8063bb0b5U, 0xb3e654e7ff49a93fU, 0xc254022e1c0fb4cfU, 0x6150a032adcd61fU,
  0xbb584143e15d0a09U, 0x3435080802491903U, 0x7f450243213dffc4U, 0x4053728c91befc0U,
  0xcad1ff7663cbf66U, 0xeb52f80a5b07f4edU, 0x7e3f8f3da0c1f1b7U, 0xbceaeb81557d51bbU,
  0x25d4f9f61c7a3f00U, 0x1414c0980d0fdc10U, 0x544ea8a34e3ad896U, 0x3df89d10b3c6b5beU,
  0x3b41e9b860068950U, 0x3eefd4cb1746a720U, 0x1b3a9852c4f6282aU, 0xc6e9c0f9667d1dbbU,
  0x3bbb19faf718c2cdU, 0xae9351020f4476dU, 0x3761081bc6e227e6U, 0xdecfc61fadbe363dU,
  0xc66105f94f41d7ccU, 0x5fd046337f88d553U, 0xbf0d0ab1afd0da5bU, 0xf79f4bca4bd6e0daU,
  0x19250ac118bc4a53U, 0xdbcdfe77bccded9aU, 0x81f53020b92f94d2U, 0xc20f0f3041e84dcfU,
  0xaa223dd1f61003ecU, 0xf136c2ea1523282cU, 0x4748c035aef74e5eU, 0x23132bd2dfda1de4U,
  0x4492335be3b492dU, 0x30dc2416ffe81fb7U, 0xfce0281b9950292U, 0x33e2084c93a8d500U,
  0x2fdb25155dbafffcU, 0xa95b1907010e3150U, 0x4fb714e9e6f0e53eU, 0x35db104cd9e70baeU,
  0xfef9c1231c44cef4U, 0x16dfd33d48bc6bdbU, 0x69391ad7334a3fccU, 0x374c0237bcc9fedfU,
  0x7fd20a342e513f32U, 0xe5f3e0f80bbcf0d5U, 0xb811eec7beeb2dccU, 0xe9380cce50e4c8e4U,
  0x9113ddcb81cbb8d5U, 0xaaaa744c8ff0731U, 0xb5aa00d01547103cU, 0x1532eb1cd8320dc7U,
  0xd6e2c79f2fc7d121U, 0xbdd1071e05082425U, 0x439ef6990f57f56dU, 0x429f60410c1dedd5U,
  0x4a54bc2340c1ad81U, 0x99cfb7174a93d9b7U, 0xe04318ae6716c62dU, 0x4f4eebddd429084cU,
  0x5108099294fc2af4U, 0x1d3e03eb0b3b9ae2U, 0x362e810728c302eaU, 0x6b408dd848e03caU,
  0xc14d07ffdff51fedU, 0x795a620d071a3dedU, 0x994bc32815262c50U, 0x2cf4dad9b8ca59e5U,
  0x53d6163d57db0ec1U, 0x45e434e08f07dbb0U, 0xdad7ee263a0af200U, 0x2b22dce659c8ef04U,
  0xcd1a0a2eab040cdfU, 0x2854afc9f1d42870U, 0x494206eaf4aed5ffU, 0x1413b9f7ea2a2c12U,
  0xd14b4aa4f8fc22d3U, 0xb5dce0527f002f04U, 0x60233ed205492805U, 0x33db5765d41a0a34U,
  0x16b01af910c745e1U, 0x7d62b014edffe8c3U, 0x1526b404f526255dU, 0xe846e2b4355d0966U,
  0xcf132ca855500cfaU, 0x17d9c4357ff4cf4eU, 0x310c21abf9a7bc41U, 0xf4e4cbc4d6c609d0U,
  0xef2e0baa23477f69U, 0xab6eee0ddbbc045U, 0xbc11d07b54c10a2U, 0x49c6c7ab3d273da9U,
  0xb023d0a237adb299U, 0x8ad3051d5028fb1dU, 0x6ebffcea9ec410fdU, 0x4ab5d3bc57126b53U,
  0x2ad51138e33418faU, 0x36fb4d1e0e40cf10U, 0xb75d41ce03deef0dU, 0x1847083c1208a420U,
  0xec5cbcc6119262dU, 0x46dc287f6810adc8U, 0xbb2003c190120c9U, 0x2ade333259477826U,
  0x429a49ad1fb7f5dcU, 0x4e23ad6bb969480cU, 0xf906fb3a1cee493aU, 0x2da9dceea194c8daU,
  0xefb0064e21463004U, 0xdcff344b7fea24e6U, 0x5bf84bd55b1229e2U, 0xa9ecc0b12a3b531U,
  0x1e235423e9c279f0U, 0x4e24e81715e9ac9aU, 0x26908144eaf020f4U, 0x1dd317071e405dbaU,
  0xc7c722d62391d0c9U, 0x2e55cfe0db3ef4a4U, 0x2a2ef9cee92ae041U, 0xedd83c0617f8b7b3U,
  0xe16304ef21e1f40U, 0x1fb86f54cc32dad1U, 0xe1f4ed341b094cbcU, 0xaebb23c68102ddf2U,
  0xce27c7154c42c2f4U, 0xcd395020d1c1e7c8U, 0x6bc50d73c240501U, 0xe2d3edeff3b904a3U,
  0xf1351f7fbd7bed50U, 0x74fc7db3938e0b2U, 0x6f416c43f1cc210cU, 0xc1da45c2dac0eac3U,
  0x65694ee8f0611153U, 0xe5f636ff2af43be2U, 0xd68f9812b3a1253eU, 0x1727c7d4b7472f04U,
  0xedcaa36acb7fbf39U, 0x4dc011f347d3f5ffU, 0x240a36a43e11db84U, 0x70534fcc9994156U,
  0x1bd1b3df0c0ec556U, 0x19134c0a3a1e3b37U, 0xc21828105b63f815U, 0xbfefd545d44fd538U,
  0x3bde3324fbb2fe13U, 0x2da5305551515f7fU, 0x45b42550014c9a2U, 0x3bdffc2be7ddc732U,
  0xd30c4a244fe0324cU, 0xf76fee15e1cd659aU, 0xf45b49e4a6cbedd4U, 0x4b35a9cd3066e22bU,
  0xffdc2323a073bb11U, 0xafe1455ba9cde421U, 0xef2f3c3d812a1222U, 0x5a0dffde1d28ffcdU,
  0x9fb19a2b45402ecfU, 0xc2d3ba9406d34cd7U, 0xc74b28d96216f6beU, 0xe12dc8d4f0271ec7U,
  0xdd063fd3d6b3fc19U, 0x1411c20ef934313aU, 0x4dd273fe2d1a26fbU, 0xbc0ae7f8be45b481U,
  0x45e8de19dd22d4c3U, 0xeb1028437c0501e1U, 0x453ff11faaedb2a4U, 0x8ede1f954b6132acU,
  0xd90f3dcccf402844U, 0xa181460edd3432caU, 0x225a59e121691debU, 0x3915c6fda9f51308U,
  0x63059618c342b02fU, 0xaf05f40261d739c8U, 0x2ea54fb4084ebea5U, 0x5e150d4abe9e6074U,
  0x7f025ca8dfa21969U, 0xa23c87a283e1c2aU, 0xd9a3fef122795020U, 0x1938d1b3f32a3e64U,
  0x50dead4dcbbe66eeU, 0x122faffdc1f0c78aU, 0x25ee652e118cd42aU, 0xd7f126b8d3192303U,
  0xd709c045b3d7f603U, 0xb3055dd7300ac0e4U, 0x53f04d97ebab7f16U, 0xff03ca2fe4c65e3bU,
  0xf2152e13c704042cU, 0x45dc3d18af1dd7f3U, 0xbcf7ebf0c4b3d92dU, 0xcdf5b6d140ecfebaU,
  0x38cbfa202011c210U, 0xed3507e7cf7fbdf3U, 0x1a0b00cc1740d812U, 0xe0b1d2a2f201d4e1U,
  0xba2014b432595ba8U, 0xd739d4fe6043d0ceU, 0x40e2de191e1b565cU, 0xbc3b589b1e234ab7U,
  0x125cc472f21fcd3cU, 0x2dc77fc4c0b3d3f0U, 0xe46f21bbbb1941cfU, 0xebc92638c90fe500U,
  0x4756b9d22b08f471U, 0x76460daae0e226d7U, 0xe2330fcf7f1826e7U, 0x725e82f0bfb26edU,
  0xf8091ef0b9231beaU, 0x39d417433f0d1519U, 0x4f10070cce1e0aeeU, 0xfcfb02e606c12931U,
  0xf504c2e136192e3eU, 0xe2e1293936e5ffdaU, 0x640ad12c31282d0fU, 0x9b1bc0405ef84311U,
  0x2653e02f7ff2bcfbU, 0xe7250457b5cca601U, 0x1f74f39debf84ffdU, 0x1802d307c0c7fd5cU,
  0xad9ec0e903769fd0U, 0x23e0492fd20ca3f2U, 0x4b09b4ece3bdbec1U, 0x2322a1d32c4c909U,
  0xeef8bac1222c243aU, 0x6c508325b63043cU, 0x7f333026ccb83ab5U, 0xdeff3d09e40b06b3U,
  0xee2104ea01e9d20aU, 0xcf1eedcb02310809U, 0x5134a3447d6b3e1U, 0xda3b135f7fcd4b10U,
  0xe732fdffa90be41cU, 0xcfe79b43d2fcf80aU, 0x39bae62f1bb9accdU, 0x3ec051e0bed2aecU,
  0xf9e006ca41a7d3e2U, 0x4aae14ac03d7e8f9U, 0x406f29a80c37bff3U, 0x3a63fbff3c8d07c3U,
  0x94edbd2831296943U, 0xc8c90858ea7f4528U, 0x191963b145d3efadU, 0x8bca139141dec4bU,
  0xc5cb1ebf361d0f1bU, 0x441aeae4ece8242dU, 0xf43945f840595381U, 0xe5f2123765e2ce2fU,
  0x1edb6f3eb01fafbU, 0xd6fd2f0c36362c45U, 0xed1515e8cbc5a441U, 0x512639fc2ceff524U,
  0xb9d81fed11171437U, 0x2e3301ea7803f615U, 0x434c3c7becd13b44U, 0xcc164ce40f4c06baU,
  0xb2d17522124dfddaU, 0xfaafa95184146b4U, 0xf8c6c4814203252dU, 0xfb14eeae491f26acU,
  0xc2da5f16b0dc9828U, 0xe1a533d0d12de8e8U, 0xf9fcdadcbb3f1ee9U, 0xfc81fc181a0240b2U,
  0x25f543f4f2b7e5d1U, 0x1279ae33100bba7U, 0x21a83ae6f32deca9U, 0x3ecea62dbb4509ccU,
  0x39184e0eda350da8U, 0x20dea76ef32df5feU, 0x2212102c746a8c9U, 0xea28f1b4df100a52U,
  0x81dc25fefecb1ddcU, 0xf7b21bfe60051514U, 0x5913ef34c995e3ddU, 0xf4290f11d6d63013U,
  0x47e2ff1da84f1d57U, 0xf7480d1635fac9e1U, 0x18fdf8d69577e569U, 0xd35423d2dfa352a1U,
  0x62e0a3a55798ff20U, 0xd627a033e4c50019U, 0xa64ffc9a41dcbec3U, 0x181dfa3d20fb3d6U,
  0xf036e5abe1aca40bU, 0xc4ddf03a01e345e3U, 0x93f1a3c9f8d74f08U, 0x360f1932b03fd423U,
  0xecefa924579c9916U, 0xee69d5bf541d9e0bU, 0xafcf275abaefb1fdU, 0x10cde9b48be2fcd0U,
  0xa326d6f6b1e7ce4dU, 0x8135acaf01151d16U, 0xabb7720ef12628d1U, 0xbe5b27e71a3c32eaU,
  0xb907c12cb4aebc89U, 0xec52aec108062a2bU, 0xc4e8fc0193de1e5cU, 0x1d21c68128d818faU,
  0x3452ab9e9c28ffb8U, 0x88c98ede220f3163U, 0x812ad8bb7ad84dacU, 0x3ce1ae684aa7c4d1U,
  0x441fbb389d4c306U, 0x838bc3fec81e27feU, 0xea2b13dce1452813U, 0x433a22aaf877d92cU,
  0xf75bfc14fbe6dedbU, 0x5035c60a0cf393fU, 0xb449c0eee1cbffa8U, 0xfb21f0eae1f69ae8U,
  0xbbd6fec6b2d42ba4U, 0xee3823f7f2372212U, 0xd9e52baf812fef4bU, 0x3eccbe3f2b354196U,
  0xa61947d32b3628a1U, 0x363bf0f2b5fc9d3fU, 0x4f623e14ee38dce4U, 0xf91ec8ecf7dc58f9U,
  0x1479f8c9d9b2fcc4U, 0xd03ef1c2180b466bU, 0xb7b3bd03fd4f7239U, 0x1de0318fa44ab0cU,
  0x32b23b7f711af0f7U, 0xa72c5db5489507eeU, 0x37415a8a160bc31aU, 0x810abee7c2c3a41bU,
  0x3ee9c118111ab9c5U, 0x9a28bafef8d2d4a9U, 0x293ff3191dd6e149U, 0xf8d2def3d1cd48c7U,
  0x82f9ef98b4e82bb0U, 0xa820fa0020a5086aU, 0xcf3b3f13480ecd43U, 0x2600e249dd0b1b54U,
  0xfac812aea9b0b1d1U, 0x3cc71427262d5770U, 0x6c197fc2030af33bU, 0xb2f003cfa81530ceU,
  0x300b61e96bc1d5f7U, 0xbff7145d62eb57a7U, 0x107e68dfd251674aU, 0xc60e02abff97fcd0U,
  0x333b131f7feed2c6U, 0xeff54800f837ea2bU, 0xe10fd328ed45b10dU, 0x54a8a44b403f326U,
  0xbc544dafcc3b5c3dU, 0x9f859dddda02ee7cU, 0xeab4e9692519b892U, 0xf68be44346feb4caU,
  0xd0c73e4cc47f9f0bU, 0xdbc501f909c92723U, 0x9283b0dc62e89e5U, 0x8230aeb2c89f1fd6U,
  0x4e5c38c5364abd67U, 0x622fbb3a0af1ffcfU, 0xe0c50f01aa310031U, 0xb9991b3611b1b92bU,
  0x5e728ad42c3c00bfU, 0xc2fc504a4f0e4925U, 0x38f65ae6b9f12218U, 0x16af9dd7243a3fc6U,
  0x7f26d73b1bfe98e5U, 0x41fc4e2d21a906caU, 0x593f0547c32a46b7U, 0xca4b3abc08371601U,
  0x9c29e809c5202ce8U, 0x19a5fb4ac71ab7daU, 0x43033ee1eebf010aU, 0xd7474cfe11e9c953U,
  0x42d2010b7f2bd47cU, 0x52cfa0801d2131dU, 0x7fc5ad032f2f2adbU, 0xf3ccf50cd32960e0U,
  0x12acb452051ff02cU, 0x6405c4f1d958500aU, 0x4723b9ed926249fU, 0xe325f9e0d0b03d14U,
  0xf71ad0bd5c50c810U, 0x523043267212d1fU, 0xdfe0c552849737f9U, 0xad07f81019f7f6ebU,
  0x1c02acdcb5c7b509U, 0x271e3bbf16ef90caU, 0x4db7dd26f20ee7daU, 0x29deb09c4cd3ff81U,
  0x45ccb0f1d94e2005U, 0xda0e070feafbcc46U, 0x77b4ae233f1ecd1eU, 0xe1ec08ece06992aU,
  0x6b3608b6a1196163U, 0x7be2e8acc747f90fU, 0x9e684c81f7f91238U, 0x2335be4f1a9cd5deU,
  0xe5d5cb0a7b52fd26U, 0xf53103c12b9c0555U, 0xbaa00cc57f25b1f9U, 0xb6421b2bc3e73952U,
  0x2f1a1f8c21a2e5c3U, 0xcb093c195230c940U, 0xa7e727e334efb333U, 0xd6c31a99af1d1b14U,
  0xd72aadc915d359f3U, 0x49dcb404122efaeU, 0x691d484b2f69843bU, 0x1df2be00a1bfc9e2U,
  0xdd3b16dd9e81a752U, 0xe2e7d24f34d0924cU, 0x44dc5028dd5624f8U, 0x93b216b50537d7e6U,
  0x59b67fe7adcb8edeU, 0xe40d49ff480d0682U, 0x351c2d3798e272c6U, 0x23efdfa6010d09b7U,
  0x1d75fa79037cc23bU, 0x4d05cbc644b5bce8U, 0x47c0ec2f3fa7c136U, 0x38c29e351907812fU,
  0xcc52372a2624a628U, 0xf3aecf1ca1e4425U, 0x391deb541e1ceb2aU, 0xc7b309d4d8d84336U,
  0xd7cce7e42d1e1ecbU, 0x4706ca39e71f7f18U, 0xd103173eedeffb01U, 0xb6e4bbfe4d22bc3eU,
  0x29c7360519553e0fU, 0xef01d9344116cfd1U, 0x332ae321e64715ffU, 0xc8d84de6c67f1bbcU,
  0xea69e5bcf84062ceU, 0xd0fb0918d52920f4U, 0xd4c03d52ae9df3aU, 0xd530fae754bca40dU,
  0x24d0fc126300ab6dU, 0xdac6e7dd53063e3fU, 0xce0a18477fa9392cU, 0x6bef00781876bfdbU,
  0xce3e94f42b36e3ebU, 0xded5f21506afeeadU, 0x2448ff21d0f82195U, 0x31c600da52ea0f00U,
  0x376e17b0b9e50042U, 0x5dfb194b260f53aeU, 0xeff90fcb7f4e0329U, 0xe1e614bf16fb4ea1U,
  0x1e55a20a056003feU, 0x1e3151e3efe87c42U, 0xf0360545ee12e788U, 0xcc09e32e2fde1cd4U,
  0x25c7f64a3128241eU, 0xbb5f31e043f926f1U, 0xde2b1dedcb483964U, 0x9856eef42cecd6faU,
  0x254cc2f2c028bc36U, 0x79cad92a500c2426U, 0x3df93df2b747e2abU, 0xcbe6964de40b06bcU,
  0xed811edf773c10d6U, 0x3e29c2c423495046U, 0xd002b1dd3c53e551U, 0x6a22e44524bee4cdU,
  0xcb502fac1ac305c2U, 0x7f020c331315bb37U, 0x41cc584b15d15a04U, 0xfa493e5b9ccc3a34U,
  0xd5d53ece5b0e3d57U, 0xd44113f2a94cd1e0U, 0xf184672dcbcaa2cdU, 0x3b0b82b051234b0bU,
  0x46eb52a81a41d574U, 0x4cac859be43a941eU, 0x9a19d0e294cf240U, 0x532500c45834b2dcU,
  0xaca6705f761e818eU, 0xf49b53b4d0da0eacU, 0xcccd0bca9f421100U, 0x43e2f702be16d523U,
  0xd3fd54fe04f7010bU, 0x24e64616e410dac5U, 0xa4e526128e47397fU, 0x4e23ee31b8de0bfeU,
  0x13e311b810324411U, 0xc10829d0b83bebc7U, 0xcf36dbe67e3ae3a4U, 0xdfae1a76cb35fcabU,
  0x440d1ca924060825U, 0x43265be0e71a3c44U, 0xe6d5e7811e22cd0cU, 0x1b32c70bf33ab701U,
  0xe7d830b6d95d5b32U, 0x231ee64dbfe87690U, 0xc45d207dd3f209bU, 0x2d42a9bb01d1e45U,
  0x1e002ccca6417fbaU, 0xc0f3260c13a0dea5U, 0xc561b754f4fdf487U, 0xdb3acecb14bcbfc8U,
  0xea150f1dfeef0f3fU, 0x87584fb9c520ded3U, 0x314a00000f81U, 0xe4b00001716U,
  0xffffcaac0000173fU, 0x3561fffffc64U, 0x2a16fffff7f5U, 0xffffec67fffff31eU,
  0xfffff2e60000067bU, 0xffffd5e5fffffaa7U, 0xffffef88000002eeU, 0x307ffffe303U,
  0x2faf00000a28U, 0xffffe97700001449U, 0xffffea87000020c7U, 0xffffa6d1ffffab49U,
  0xfffff61000002d7dU, 0xfffffbfd000005e3U, 0x38ecffffd6d6U, 0x438fffff06cU,
  0x2e1d000015deU, 0xffffdce2ffffec69U, 0xffffe7360000198eU, 0x23f2000003a1U,
  0x1433ffffe286U, 0xffffe7ab00000c73U, 0xffffe98f0000063fU, 0xfffff42700004ceeU,
  0x41900000de9U, 0x981000005feU, 0xffffe5b8fffff66dU, 0xffffe129fffff49eU,
  0xfffffd6e00001056U, 0xffffeed600001232U, 0xffffd6ba00001b69U, 0xffffe1c10000200dU,
  0xfffffba600002623U, 0x3c20ffffe055U, 0x79b00000780U, 0xffffc432fffff2e7U,
  0xffffd56200002aaaU, 0x106cffffd504U, 0xffffdc7c000006fcU, 0xffffca420000048eU,
  0xfffff6a900000851U, 0xffffe7920000037aU, 0x192200000409U, 0xffffdff4ffffe6c9U,
  0x2dcfffff1abU, 0xffffe4ef00000ac1U, 0x78bffffdddeU, 0x6a9000013afU,
  0x46cb00004a57U, 0x10fb00002fd0U, 0xffffeacc000027d6U, 0xffffe01900003c27U,
  0x1786fffff2bcU, 0xffffe6c3fffffadeU, 0x3b38ffffdee6U, 0x1844fffff660U,
  0xffffeced00001c2cU, 0xffffea0fffffeacaU, 0xffffdc4affffecbfU, 0xffffd997fffff309U,
  0xee500001782U, 0x2ed2fffff266U, 0x291a437f24258187U, 0x39f229d4f7eeeec7U,
  0xd9d77f3ddafd200dU, 0x38dcf87f1ce2fecaU, 0xd7f181f814ac0aedU, 0x5cb8bbe2e726d281U,
  0x4d81d7815b6cc73cU, 0xc236e04d7f0bea20U, 0x10f0d1b04c8b833U, 0xcc0dd23395280189U,
  0x7fb9a9f45b7e577fU, 0x7f32db9692f8bd9aU, 0x9e912a8b391e81caU, 0x7fb816c0d1025fU,
  0x9e09c7f77fdb8c14U, 0xc67f54fb882a9b2fU, 0x1fc91ff5381e23f5U, 0xf4e75d17292b2581U,
  0x3df936d37fa17f8bU, 0x35107fe681381ce0U, 0x7f55c800d6bc81eaU, 0x247fed7fe1cf5625U,
  0xfbb074fe32f47f5dU, 0xf12edd7f9effd643U, 0x20078599da2b7f24U, 0xfe27a187bbf73d81U,
  0x2f81fdc264122446U, 0xeeef4124d17f1fcaU, 0xb1ba48bcd817e115U, 0x7ed6171347fb1081U,
  0x9d2a39f3ef81d0cfU, 0xfe1bfd04ff1f7f7bU, 0x7fc2df0eec908be1U, 0xf1fc8108f4f0f0afU,
  0xda0c4b36703fcaaeU, 0x3f7fb0ed04cad67fU, 0xe1280fac0717b5d3U, 0xf1c8d4180181bfddU,
  0x71022b990148e257U, 0x31c91aa6aff0d06bU, 0xe07f8112cfcc4381U, 0x7f31819bd2b59ce1U,
  0xdda0b1781ffdd81U, 0xefcd658f0efd55feU, 0x5d2cfd27c2d49904U, 0x478eadb7226d81efU,
  0xce9a5d86882d751U, 0x7ff1e3de340d7d2aU, 0x28f30d91bd07c115U, 0x4bebe41c1038e694U,
  0x9cc32d1517817381U, 0x1ab8e44133b9ff48U, 0x1644abee7fb8eac3U, 0x7fd6aae6f4d5ecbdU,
  0x49078184e11af6c8U, 0x21b69b4f25d0eb11U, 0xbcf6c1d05426abdcU, 0x2f800cadefd16c5U,
  0xfd427fd4187f1e6bU, 0x483d1a21b7112e9bU, 0xa1515f0c3f811881U, 0x381c8a62f2cd2847U,
  0x6e7fdbd550cc4137U, 0x20582654e75759a4U, 0x6d7bff9fdf02e26U, 0x427fb87f8155a2fbU,
  0x2d4b4481f035e23bU, 0xf2b34f2cdaa80ec3U, 0x106c0281ec13d91fU, 0xeec7f03819b7fa8U,
  0xd49b1a02ad816ce5U, 0xd081bc8b134d7f0dU, 0x921c55817ffa33d7U, 0xed0f280247818137U,
  0x3107472ac130d628U, 0xd4df235081197f60U, 0xe0ccde8120f0edfaU, 0x630b7f816c79f877U,
  0x333fcb0ecce4afeU, 0xea4c041d49812f35U, 0x267f04e1b13c2788U, 0x81ffa96381e3fa74U,
  0x2deed30e0219ee29U, 0x123693ba2d9f1af0U, 0x5c8240f13f2ffe6U, 0x61ef60ac77cfdc1U,
  0x59d5b903e412ec95U, 0xcd1ae7db78691a7fU, 0xf3e84a7410f0c715U, 0xfdfbe1bc81930e48U,
  0xe0aff3f7f1028826U, 0xe4207f5aaaf434f6U, 0x433aec0881c1de32U, 0x7f153a0d277fa810U,
  0x7fffca14e0d9811cU, 0xfbe5a9cca4f85de1U, 0xf109e6ef740b0865U, 0x8dfcf6e2e17f284dU,
  0x81566cdc9cfcedf5U, 0xed070487adc17f3aU, 0xfdfc851d0099d781U, 0x992ac8e752f1a092U,
  0x812181a0811bd381U, 0xdd1e815708133329U, 0xf2f1a845aeeffcfeU, 0x1b1b0a7f30e5d81aU,
  0xa3eeaa894320dd9U, 0x57ff1811ad23fedU, 0x423f288bec033481U, 0xd6b8ab32c3022c69U,
  0x9905ff1cd20815b3U, 0xde56fb7f6cfa0169U, 0x12f3e7f1cce57792U, 0xdeedbd45c0cb85aU,
  0xd82be37d4dadee63U, 0x7d83fe39e481f1f5U, 0x5bbec163be300eaU, 0xe6e456cee456c616U,
  0x540f1663f3cda1d7U, 0x8192face8f09672fU, 0xe514151be27fb9b2U, 0x9e7f2cba189a0154U,
  0x146c5081b0f08185U, 0xd117735e06e0d8c1U, 0x7f7f7fcf881417a8U, 0x23ea0826812a1d1fU,
  0xacf3657f04763d33U, 0xfacfbfed81e5140aU, 0x31e58100817fec81U, 0xefe7a512abc88171U,
  0x12811845b3e00548U, 0x81ef01dd1eb2133aU, 0x1481ef28c081d3cdU, 0x28130c1c12107493U,
  0x54b405ec41bc043U, 0xbbdebbf9a07f61dbU, 0x81f463910909dad4U, 0xf9354d3298992c61U,
  0xf9d3f2f9a94aaed4U, 0xe4e208b9eef3ff81U, 0x3f28a3e304081318U, 0xcaddbbd7ef49c547U,
  0x180b7f575d05de7fU, 0xbe347f972de3387fU, 0x25500000b59U, 0x744fffff979U,
  0x81f000003e6U, 0xfffff15900000438U, 0xe39000000deU, 0xcaafffff6b0U,
  0xfa0fffff57fU, 0x93700000116U, 0xfffffaa700000566U, 0xfffff85700000a72U,
  0xffffef09fffffdbfU, 0x906000000bfU, 0xfffff983fffffbafU, 0x65100002243U,
  0xfffffe63fffffe31U, 0xfffff69400000a69U, 0xceb00000ffcU, 0xfffffb76000017d8U,
  0x11e90000073eU, 0xfffff83a000000d0U, 0xfffffe13000017d5U, 0x81300000708U,
  0x3fdfffffdd4U, 0xfffff7b0fffffdceU, 0x24800000687U, 0x8e400000054U,
  0x2490000114aU, 0xfffff63c00000a74U, 0xfffff0a1ffffeaa8U, 0x74afffff0c2U,
  0x13acffffffadU, 0xdd200000c3dU, 0x3dc000007a5U, 0xfffffdaefffffd82U,
  0xac90000073bU, 0xeb9fffff91eU, 0x60500000152U, 0xf7100001a35U,
  0x98a000007c7U, 0x20afffff149U, 0xddffffffd7eU, 0xae7ffffed5cU,
  0xfffffc2c00000903U, 0xfffff45600000accU, 0xfffff22000000dd5U, 0x2056fffffd55U,
  0xffffe9b400000290U, 0x204fffff8faU, 0x780000017d7U, 0x9bc00000693U,
  0xfffff30a00001fb8U, 0xfffffa7dfffff7b5U, 0x7c4ffffefb0U, 0x566ffffed44U,
  0x9b000000084U, 0xffffe975000002d5U, 0x5e4fffff408U, 0xfffff3510000117dU,
  0xfffffdc7fffffec5U, 0x403fffff5e3U, 0xffffeb30ffffed5dU, 0x1360000019aU,
  0xfffffdb5fffffea8U, 0x1c9ffffed1dU, 0x23b6be91f1b526f0U, 0x1d2e3ff6e56716ddU,
  0x7351b9bc0faf9fd0U, 0x61b00dced1ffc896U, 0xddf20711ea25de7bU, 0xa5475685eb06e908U,
  0xfd1915eb02192f05U, 0xafb7b8f34dce00b0U, 0x298122d866a96513U, 0xc3c630cf25da2739U,
  0xcf252a482333c604U, 0x3be5021eed5f4536U, 0x6309ee35e41ef4eaU, 0x28055337512eda2bU,
  0xa4ccc402e90f130U, 0xfd0409e41929d9dbU, 0x1f500c01ff52eaccU, 0xe78ada1d154c31b4U,
  0xd6d0fe4a04b854e6U, 0xa1dc270e7804f425U, 0xfff9e2c11322701eU, 0x1dbdbd521e555c4U,
  0xd627e52fb313b339U, 0x2d2fe72368df27a0U, 0xcf815136c837c80cU, 0x74f3c120236bd8fdU,
  0x15323bd270e12327U, 0x33386d5a926d065U, 0xf8fd0329512cf1e4U, 0xb6035ad9f8b2474cU,
  0x5c513b30aafc683bU, 0xaeb833ebf41b93b9U, 0x3048e3073f28f8bfU, 0x4e342ad3e1e4df23U,
  0xce190914eed9e8d8U, 0x3346c40104c31046U, 0xd750b0fef3c607efU, 0x370d65d4fc06f695U,
  0xf80bf222060eeaf4U, 0x2c0efd0527dae036U, 0x1efceadb1f442b35U, 0x9fa3b0001c2fd3bU,
  0x2202edc2717cfd6U, 0xfef6d5e581fceb0cU, 0xd80b2d3bb5d6242eU, 0x2628e827091906efU,
  0xd52d28351a17e1ebU, 0xdb420ced2df42c13U, 0x43c0a50b37d027deU, 0x1ccebf180d17c3U,
  0x3d132731f0d5c1cdU, 0xe71a12d4164b3bd5U, 0x2926ed0f1418d9ecU, 0x17f1a6dec92ec41eU,
  0x57ccedf6c144f9ebU, 0x3ed252d132f216b4U, 0xc9b83d32b0130e11U, 0xffac41c2df39f511U,
  0x13ec6bcf3eac3a9U, 0xf13c9cf82dd2b31cU, 0xde2c46cfc9c91c31U, 0xbe33cf59454aed9U,
  0x2dbfbb52ebe73c81U, 0xf6b0e16a2c92caefU, 0xeaebc38e2343ded9U, 0x1875ebce43dce938U,
  0xee6dd41a374fe7e0U, 0x33677948ad5fc826U, 0xef201a9243fce5c9U, 0x36e80067f6b6f6bbU,
  0x3431e80dab5c00aeU, 0x35d8cf90ed03417fU, 0xc278b6163d1240e9U, 0x43d1d83d359c4fbdU,
  0x1f829d22e4c9ccfU, 0xfbab41d153e92c45U, 0x52c22d16c52240daU, 0x31a931f37e0a25d7U,
  0xa247bcb94302923fU, 0xfa29653eec2af135U, 0x45c1811bd19f613U, 0x93cdffe6e60e9cbcU,
  0xac19e1420b094cb6U, 0xc9e92dbc0b585066U, 0x1039e413fcef2c0bU, 0x25d42a7fd92802b7U,
  0x607f335dafef7U, 0xf5f2bb5af0d4dceaU, 0x2da7dd18a135ed68U, 0x3722123c8a44c0b1U,
  0xf335c9fc4feaf9c8U, 0x5ddbe015ed4bb4dU, 0x8afe1446120d451cU, 0xb395fa22b41cc4f7U,
  0x5b607e366305b9aU, 0x643bf9e097143664U, 0xf1d707dfc103afe3U, 0xc8cf0c58ecdb18baU,
  0x1823362928c7b599U, 0xaacb45e34a559cdfU, 0xf4858e06f44d20c0U, 0xfaab192fd3a21a30U,
  0x4d11ae593f54a919U, 0xda3153f8dabd33f2U, 0x9e76e71c61490edcU, 0x6c289afbe73ba5cbU,
  0x71c21aafe3d19d1fU, 0x81bbe34ad74ce6f8U, 0xeb48ebc9afc0123dU, 0xf0e9184525a5df0fU,
  0x63f93d1aabe14f18U, 0xfceac9863e094dd9U, 0x5096fed233016db8U, 0x993f2e84433f618U,
  0x4709bbd6422a30fbU, 0xde81cedbad4b27d1U, 0x3a243f431dc84deaU, 0xdc40ef4d98a6c83aU,
  0xdf1cd5c629d7c215U, 0xaa572a218f429ecU, 0xec2611f9af4bbb0eU, 0x40fee258d5d001U,
  0x4431f51416cfa734U, 0xb2c9f209fca8ce9bU, 0xf31ec824eb0533feU, 0x7afe60cef3a2a31U,
  0xc729f54248e6b152U, 0xfa3dd32d03030ae0U, 0x33f5f9e7eee1e25dU, 0x2d2446ce9c3527b9U,
  0x842f1cdfee48a6b0U, 0xe3cfbdfcd2ed457fU, 0xa820ec2544b80727U, 0x9f9725aef2fee1beU,
  0xd1f3311ade0b0a9U, 0xcbde15ec8895df33U, 0xb5641ab7bb41661cU, 0xb15fe1b9c72dc944U,
  0x1068287afbd8aed9U, 0xe912e53afd9c11fcU, 0x4acfceaf002984f8U, 0x94a52320a2fa09ebU,
  0xad21bd39a9dd20ccU, 0x1e2df43c372c3b43U, 0x552a4827b4a5d309U, 0x38d12c230e19b3d1U,
  0xd3bf543a03b219f2U, 0xc9220f2cd01a3ce7U, 0x732b01f9ba07ddf2U, 0x311b35c8b4c6a111U,
  0x2bf24edad22b5434U, 0x21fcd2c0f0a34bdU, 0xa72c55bf314bc7f2U, 0xfac2e728211ff98cU,
  0xeabe0c176fdc54a9U, 0x4d7f3fbdbcb1f6f7U, 0xbc4b274f2e049ff2U, 0x2e3a3800273f321aU,
  0xab08135ffac3e5e8U, 0x1485085cf9451733U, 0x514331fc164ede08U, 0xf0e74e346408cb49U,
  0x34cf1122eb2a1c7fU, 0x9e14c4ed2eca0851U, 0x3e20a100cbb69e4bU, 0xd21cf3e2c177923U,
  0x6d8d408110fc404U, 0x4139e4b0dff7ee38U, 0xedf6652373d0feffU, 0x5dffe4132a94ba0fU,
  0xf31e4ca8f1c012e5U, 0x8d181a36ffc7525cU, 0xc51270a755fd235dU, 0x34c8eafc21e097c7U,
  0xdd35f123e406390aU, 0x3a86f951ea2642eaU, 0xf0197230ad6a47a5U, 0x5b0ed2320118fe81U,
  0xde5e24601dc283bU, 0x348a390e316b25dcU, 0xa3cf38c5a718cc4eU, 0x74ec000dde0022b6U,
  0xf615efc73bf8e796U, 0x2b2069513ef43eddU, 0xce9b3c3dff4d312U, 0x28eefdd0ca5e2724U,
  0xdbd435e2a12d3665U, 0xb31bca55e70d49adU, 0x94cb20fdf3c48f0eU, 0xb938f3a7bc405940U,
  0x2da4ec07100a1272U, 0x1bc01102033cd904U, 0x210cd5e7de43f5feU, 0xe0eecd278dc4a333U,
  0x2afccf044421b86cU, 0x5c45f6c918a4ced0U, 0x81a7e5c5da09ad2cU, 0xb738992aec515df6U,
  0xd0e502c6212a8f1fU, 0x28cd2791c014e030U, 0x1436c4d731ddb3d7U, 0x40cd4c5ec7454933U,
  0xf8f99b90bdd72da5U, 0xa9ce3a402ca1e038U, 0x3c3ee9bbdfb63754U, 0xc8f5ab04e82ae43cU,
  0xefb4e8f10afdad19U, 0x60ef01e5070ee4b1U, 0x2ac8c5f464f5216aU, 0x4ce75b26dce9d4d9U,
  0xb133dfcbf31f3cb7U, 0xdc50e9585c3016e8U, 0x81e4ef3248e7579fU, 0x369e0cde1ce228f5U,
  0x30fbd5db1a18f908U, 0xd12bc3f1f0fecf3fU, 0xe65d090f30a0f821U, 0x590dceaff81cd5c8U,
  0x3be8c5e0f6451269U, 0xb3609eb079d4926U, 0xde1feff6e7203bf2U, 0xe718cf4d4ee5b8c5U,
  0x5e36b13826aa0c18U, 0xe0242fd497102dbU, 0xf0de4ed20d51344U, 0x5312115c298627d9U,
  0x58b5b2fed13fcf9eU, 0x41a53e63477f92ccU, 0xf9a6c1d0109010f9U, 0x5828f73e1b8c2fe2U,
  0xf606eeeb51acdaeeU, 0xcd43b316dd26b0cbU, 0x13e653e58bbceaeeU, 0x5d4de503ebdf1d4bU,
  0xe0c39cfe1f1af00aU, 0x52ad66aa3d95d8ceU, 0xdb2aae89df1338cfU, 0xe911c4deb26b11f2U,
  0xd9f4d092db43e62eU, 0xf2ed1be1f4d0128fU, 0x30d3a6d61ee4cfbcU, 0x810014ef3ed707e1U,
  0xef08113642e3335cU, 0x10e1adce3323421U, 0x8132a10480904bcU, 0xffd102cbe1bef4ebU,
  0x3826141dbddd0e28U, 0x7050ac6d13c2418U, 0xf50e49d81b1bc4d4U, 0xfcfd59d7060806efU,
  0xd843cac195c600e1U, 0x1fd42b4b4fd623cdU, 0xcaef10b5092b1506U, 0xa6c511de303505e2U,
  0x23b23fe6f713e926U, 0xe5f7180207c8ec41U, 0x1225b2d0f60a5115U, 0xbf194835fbda09acU,
  0xfd22c528d212a526U, 0xbed6f4062802153bU, 0xffcc2af60cede05bU, 0x5827d72ccf1ec6bfU,
  0x114c1134eed22ad2U, 0x56311853e69f9f01U, 0xbcc91b20eef507adU, 0xcae72ac33f57faf8U,
  0x2d00271af6f614c7U, 0x2dbdf41ac5aeccfaU, 0xbc7f28eba2c1d8f9U, 0xc301c0e13633f939U,
  0xf71c1ad2fbeb43dbU, 0x5c2c04ea34d7bec1U, 0xded74c1f2fa52b2bU, 0x4d1959f2efb9ccb5U,
  0x3cadf3f1d4e52eb1U, 0x2af4092e4b341b5cU, 0xc813dcf8f6f5bb16U, 0xf9cccbef42482cdeU,
  0xeaefbffe08a72108U, 0x31e01ddeeab2f0b4U, 0xf1df91fb27fecb1aU, 0x28d6fb3b1d3627eeU,
  0x24ba3920b813db16U, 0x43f8fa8d81d728b9U, 0xde54c1e32228419eU, 0xa5530ee0cd12e8f1U,
  0xd4ed2897b2e9e3c4U, 0xe932be5fa306f4d0U, 0x360fff151415281dU, 0x32f8c6e1a1d4eac1U,
  0xebfce3c5212e4cf2U, 0xca24b02af91aabf5U, 0x18dc111c414f2bU, 0xfff7c6e133d7af3aU,
  0xfdb415482e9f1440U, 0x44ea411863042219U, 0xaaf7bccebf0ae425U, 0xb1a617e1592fbd02U,
  0xded205fb36ed2635U, 0x5313fab67ffdaf3aU, 0x71e13e933123556U, 0xd725e706c0edc2c2U,
  0xbfa2c3b4d16dded7U, 0x1dc35547b85b229cU, 0xc30004fda5c0fad5U, 0xd1d8e6e30d2e370aU,
  0x2e421f32c6e4f6dbU, 0x20f9d1aeec4d17dcU, 0x291ee7cb0b023fe3U, 0x17baf231e8bb36deU,
  0xab3020b9c933f4d3U, 0x4f525f1ccab1bbaU, 0xd830df14febcce32U, 0x5acd01fdef9f736U,
  0x504fbad8e0eaf5e4U, 0x12efe4411ee10530U, 0xc012223db11611f9U, 0x15810cba1b311f42U,
  0xe5caf0e3dc4f02beU, 0xe5d6b8b441a4ae38U, 0xd362a02c510bd2fU, 0xdaef19030eda1d2dU,
  0xd215f84a0b13c136U, 0xc60c281205f1fad6U, 0xfbc43af20e22a7d7U, 0x10cedcc9ee1f2004U,
  0xf440f10eb3241fc3U, 0x3ce0030bc1143a39U, 0xbc12c5e4c47fcd37U, 0x1d0961d601ec0ee0U,
  0xb5300dcdc928d0bbU, 0xa4db00de1d0effe0U, 0xe5e72d09f816ce08U, 0xf8b61bfabefbe1f7U,
  0xc51b3d39a9db34fdU, 0xcefd0f13342f0b11U, 0xfc12d3accae6c359U, 0x97d7e035cae6bc08U,
  0xe0e533c02c482ddcU, 0xe2e6b1011c66ed07U, 0x810015b2f81210eaU, 0xec50d030a1d02f3U,
  0x47dafa03cbdd9e2aU, 0x23fdb2ab341bc82eU, 0x15cd1ba4329e43f4U, 0x1dc722fe22c7ed4bU,
  0x24d1b0f9efb23e01U, 0xda0d303b14f93e06U, 0x33c4b490cf45ca77U, 0xd593d2e6d34120fbU,
  0x8fb3ccec8a9cf1e8U, 0x2920c8dfe3fbc884U, 0x11d1e42fa42df723U, 0xa883169b3c648f3aU,
  0xc423bd2330c75709U, 0xb4e302f0b0ab4a20U, 0xd2f3c84341b2e22eU, 0xc70ce6011a05f7a1U,
  0x7ebc27f08ddd43eU, 0xe93ed65ad8d5e239U, 0xac128c742ffe2536U, 0x69c16666e72d4ceeU,
  0x1847cb10da102902U, 0xa53ecb233bb23206U, 0xc82ef7dff8fe54b6U, 0xf627f8180b67f43cU,
  0x12f6f2f02f795df3U, 0x33c11f31fdead727U, 0xcb3cdce80fca184aU, 0xd8caaff7e533d4a8U,
  0xfa1444151b04eb11U, 0x28c238372e2808e3U, 0xfd02cb1bd13aa833U, 0x9321d59f2142404U,
  0x2a58c431423317c6U, 0xe214d511e43e18c0U, 0x3e16fba5f504382bU, 0x4f127f735b2f06f4U,
  0x4445470f0516c3ebU, 0x2c3c5f1fac1131bU, 0x5c22220acc0a2317U, 0x290b120542f6d9c7U,
  0x1c70155332efe7feU, 0x29ebd3aefbf82c36U, 0xe3bd0ef8fdf57d29U, 0xfbeeb633e71f01f8U,
  0x5022fe8e5d38a435U, 0x8f0d4ee222f7a30cU, 0x371a3fd7c3ea02f8U, 0xc7cf7ffc73021beaU,
  0x3b3632361ef1540dU, 0xea2334e8931fbc1aU, 0xb2f614125566de3U, 0xe5212cf8170f5600U,
  0x4020c1ed4ccd09e1U, 0x9dffbcc824f54cfaU, 0x220efad2b1bc0d4fU, 0xea106bef49ebdef9U,
  0xde397ef11b6049a3U, 0xea05332f06ce03bcU, 0x23692ba1d5c601caU, 0x3633444e192d12deU,
  0xfe28d6dbdf58a259U, 0x44fb3a54df1d44f3U, 0x9b26ac263e3c5510U, 0x3b33faa5ccf52798U,
  0xe1e6feb1989f1349U, 0xd827ba8bd33014edU, 0xb13f15c3eac58b4U, 0x60f8312dd89ac442U,
  0x8cb646e330f5d1e9U, 0xbda5dcc8a6a05dbfU, 0xd15cc61a07187ff0U, 0xf1ebbf85e9b96c2U,
  0x3aee1d2525d9f5e8U, 0x31dd373ae24f3fe4U, 0x28d1ca70a5eafebbU, 0x1721254aef3531abU,
  0x362217d5fbef55f5U, 0x3f0f422016c13d46U, 0x2006074bafbf6403U, 0x124a55345981cd38U,
  0x170c4fa9e82b0a40U, 0xb6b3afe3e145ed4dU, 0xcbf0b4ebbd51674fU, 0x44bf9fdbdf031b37U,
  0x1707d3d0d6e1f5ecU, 0xc29420ddaf6b480aU, 0xcde10efa679b5656U, 0x4894ce11ccf917abU,
  0x8ccce695f2cf1bb6U, 0x203d4649f5167550U, 0x1428bed035ed8127U, 0xee0925011ae226b7U,
  0x2a3fd2f9d62f4eddU, 0xf861d4e344a3d33bU, 0x15ee031ec2ceec0eU, 0xf4da31f2b4124d8U,
  0xdb9de011b6f2998U, 0xf9d728df3b2d61feU, 0xe0d2d7bb43edb316U, 0xe7d7bfada9cf14d2U,
  0x34a5445ae0d5d5e6U, 0xdb371ffd9163ed0dU, 0x32302c58e6d4fbd8U, 0x1303061adedf1215U,
  0x310fd9b3b0a4a647U, 0x1331af4021d7da26U, 0x4fa8ca1b83e4638U, 0xff967bcb4a9bee4fU,
  0x4213e8302683fd26U, 0xee09e59e066a06ebU, 0xd361f5c3c02703abU, 0xf428e640b939ee50U,
  0xc5341952e1821bb3U, 0xd79ccf1210d3d7d8U, 0x7a8174ab230044eU, 0xc6e6ba4c499deb13U,
  0xfcab3ff52a174707U, 0x5cd100b564e4e615U, 0x471d27aee60a4cc7U, 0xcf2d46811a42d0f7U,
  0xa9a6e00faa048ca3U, 0x9ccf31d2d262bb0bU, 0x135d51d01cf40bf4U, 0xc2203b5ebb1b56cdU,
  0x44645e80baae1eeU, 0xb2dbe2e8075c3808U, 0x11056614ed171e2cU, 0x96f6077f24e043faU,
  0x29d399225c27ebeaU, 0xc6a2f90e0f22f041U, 0xf65ef1f3e5fe6131U, 0x8f50bf9c01f2213U,
  0xc3deb4c23bf0f7daU, 0xd7af38f564c03398U, 0xecc6fa7fc53e2bb0U, 0xd6c53bcb1847c766U,
  0xb2f92819f64d491dU, 0xcca24bc7f526a80aU, 0x25ab23fa38adc6ddU, 0x3f2a1ed8073f4042U,
  0x144f00fcb9dce5d4U, 0x25cdb3dadda2f1ddU, 0xebdde942e6255725U, 0x914529e5c7fcd5d2U,
  0xc106e7eadd3e41e7U, 0xb1e235b233fceff9U, 0xf50af1fd252920dfU, 0x4247ced715bb2c59U,
  0xd3ef7f0be9bac3ebU, 0xbbe51d1a8befef5dU, 0x5b3b0d3dd116d41fU, 0xdb110e5813c80c06U,
  0xe03919c4400351c2U, 0xcf391326eec6360bU, 0x5b5442280fc8162fU, 0x4ecc6ef7f15b6d3dU,
  0x192b1f10969f00faU, 0xdc60090af6cb5cd6U, 0x7d233e4303833deU, 0x3eac6fc44525e535U,
  0xe20e5ee854b60a1bU, 0x10b00be624fde6deU, 0xa1fa32119b5be332U, 0xa550c51821e5d21eU,
  0xaf143007243e0b31U, 0x5031e54ee60752bbU, 0x4eff545b1ae48423U, 0xbe1b1b0c07d5301bU,
  0x81d9bce1be6b2bafU, 0x73aabfe25c5092fU, 0x40f70af1e34e46e1U, 0x8110bfde9da14deU,
  0x2af31fedc605c802U, 0x247f32af570f02f0U, 0x2cd8cc01dba12117U, 0xfbc1e2cd4b1de0e7U,
  0xfd10201a38cbd9ddU, 0xc8d849e8f2e2f12cU, 0x3608d4dbf708eac9U, 0xfa01cb230bdcdf4eU,
  0x8ccc636e9ed1d96U, 0x81749c4d01add9eU, 0xdfec63e6b50dec43U, 0x61b36a213ad89decU,
  0x33e0c01beb12e519U, 0xf6cecea5348f07fcU, 0xc6172be9c897311fU, 0xd9304bd2f33b1a44U,
  0xfc05ca1b5a0959c7U, 0xb4d63760da7903c6U, 0x23f9f4c34a20285eU, 0x29b5f705282bf44aU,
  0x2efbd219cb15a794U, 0xf003001dbdf3b114U, 0x51be8add3fead121U, 0xa434d5c2ef5bc2c5U,
  0xc8c6caa2093dc1eaU, 0x2088e7d024a5b6e5U, 0xb413b33064abb04aU, 0xd218e3a7beae3926U,
  0xbe352fba40e28108U, 0x2d0a1dc2ac1ecad5U, 0x320a2bf63d30e0d5U, 0xd0ca3fd43cd8d6c0U,
  0xe748192838a9d7d9U, 0x3ff72e6a2ed5f045U, 0x2da9b4a528c1ece2U, 0x1306e007d52c0320U,
  0xf210e61bfffbd069U, 0xc5faca160be3fecfU, 0xff4e4b8e532bb1dU, 0x1b3a132cc21439f7U,
  0x521e12f293c81cf8U, 0xfc81311bb811e59cU, 0xd4e912b21f22268dU, 0xc607c30e8a17241eU,
  0xf2852d1b4dfbbeffU, 0xf509230225fcd83dU, 0x31171fbc1a1adfb3U, 0xe5c01124fabf4207U,
  0xd624339edaceb146U, 0x3af1f709b73dea1bU, 0xce7dde0122af701U, 0xcad427aa373dfacfU,
  0xae520922cdc9cf49U, 0x202b50b9e523ded3U, 0xe0ebfb0fdefa9427U, 0x343c1bff37e1f6d0U,
  0x1dd9f71025e7e813U, 0x81c608deebe204fbU, 0x34f9120d0110e21aU, 0xc430d6c9d2ba142aU,
  0x324a09ebd039110aU, 0xf0e2041314ecdbe7U, 0x909c9313a35dae9U, 0xb5fbd7d6221e32e9U,
  0xd4c344813e04ee3cU, 0x2031fd0cd6110ddbU, 0x93d5c6bd57c0d229U, 0xbcd6456544690fd5U,
  0xcf4213b9cbe238c4U, 0xebeb0ff8bfdd1625U, 0xe033c8d014c65cf3U, 0x3b11e7cbd4c602daU,
  0xedf0f500a9c8d717U, 0xccc5c2dfe08d75baU, 0x1502e7c0b7e3d62aU, 0x4efb38e7fbb8cad2U,
  0x2eefd500ed1b25c9U, 0xea009792d3031aacU, 0x37ce4ee3dc14080fU, 0xea15dfc5e5dfd212U,
  0xe20c05ec0212f1f0U, 0xdb5812f0fb6357c0U, 0xb6fefbcabd0d0b55U, 0x12ea541ca5f061abU,
  0x30cd3038339e4ddfU, 0x3a6e9c26b6d1d02cU, 0x37e11942b2ac7f0fU, 0x5be9dcd108e22439U,
  0xcf92efe0d6b0ea0eU, 0x92c1f627aa98ea9aU, 0x975f81633c2ae71U, 0xfd0b1d002c0241e6U,
  0x646a4dbc7fde43cU, 0x333615d6d3150fbaU, 0xf7015259b20001feU, 0x1d334231b7319e5fU,
  0x7413b20bd6f2f1f9U, 0x3b232ffc0c2d3534U, 0x2d5f1250f61c1933U, 0xd4b304975500ddeaU,
  0xa4b37f681afa61b0U, 0x8fdf1e2b2f291302U, 0x49eed2cf31ce2ddcU, 0xcce6ef1321f93417U,
  0xadea7cd151d54624U, 0xd4ab535afd74ef2U, 0x286854f14fd710bdU, 0x433131fb1f0d14cdU,
  0xf7cf0d03ce84edb8U, 0xeec2c4e02be1cfd3U, 0xd81722d6f9cf0517U, 0xc081de0435bc10edU,
  0x3a1fe1f0d2be1b15U, 0xdc4ee4ba642c126U, 0x4be5d5e416fd16f4U, 0x432aa940c6ecbaf8U,
  0x525d924344212b3U, 0xc80e18f958bef440U, 0xb8e606f1d5b810f0U, 0x11d3bb5418bd04d1U,
  0x5da6fdd758e93c3eU, 0x311e1e12b633c28dU, 0xfe51ee12c370e0bU, 0x23ce2e1d7ee0d30U,
  0x2b1c3f11fc3a3fc0U, 0x93a32b01ada2242U, 0x1c9535b1fb0b12d0U, 0x59f72fd46eddb2a4U,
  0xacff2da3e3f318e2U, 0xc7fa22c9c9f29f36U, 0x4760ecaa451351aeU, 0xe9cc7112bf9ecb8U,
  0xfaac384fbffeca2U, 0x22cf056336d0dd2dU, 0x4c2712193d090bf0U, 0x2be081c0a7c812eeU,
  0xd920ea103c720ef2U, 0x40cd42f9d22309U, 0x4a49b54806bd3bc9U, 0x50e5412e5e01f4d9U,
  0xcedaecabdb30dfecU, 0xcf36b8fbdd36dacbU, 0x296e15dc6054d7f7U, 0x30c3e04b98694b0dU,
  0xec5fd2f83547d259U, 0x3048619290941cd2U, 0x2b180f22fbd0f0c7U, 0x5d4b2d1e416a482cU,
  0x44bf0bbac8491ddeU, 0xbda34025db43dfc1U, 0xe2ca3ad726d04c20U, 0x43d9e72af0d843b5U,
  0xd31249f5ae00b55dU, 0xede70bf6f94017caU, 0xe4c3fadc23d104f2U, 0x3e1365e36bb5261dU,
  0xfddf0b3d3832f781U, 0x16181c20bec11facU, 0xbe35034111cd06e9U, 0xc29392ee7260d99U,
  0x17c820051cec110dU, 0xdc1312a8ff4ddd30U, 0x1650f4cba82fd6e9U, 0xb437ec2fbd1bd712U,
  0xce0c07fd5de72c2cU, 0x3138e51881a9dae6U, 0xcae0143de11d650fU, 0xcfe1b29d8443bdaU,
  0x3aedb1904ae22f7U, 0xeedb1fe1f00713U, 0x9ce020c9cbd8fd22U, 0xf1c11c2a1a2c0a3eU,
  0x342e35a0311ef1deU, 0xd30432f001e0dfd1U, 0xea3e2d7faebec18U, 0xd95e223ef1ecd4d3U,
  0xace6ecff472df0c8U, 0xf65510d236302e42U, 0x9ee55839301028ccU, 0xbff6404633d6cbbdU,
  0x62d24d7f1f6018deU, 0xb0f0fa24c517b14eU, 0xba49ee74c71024e0U, 0xd9fc2d8d3413dfeaU,
  0x403b9d2536aebcf8U, 0x4ae1bfbc532ee48U, 0x16f434360bc3273aU, 0xb8d34ad6171850cbU,
  0xecaebcf0991bdde0U, 0xbcafef609e5f3f3U, 0x1222080ea7d1130bU, 0xcb69401ff3eab9cfU,
  0xe1e6fa14140dfe15U, 0xb5490736d3cceff5U, 0xf450f918cc010c41U, 0xdb01ebc2deb0cb0eU,
  0x49fd192119eb4294U, 0x3a120330f408d7baU, 0xe231c2de22b05721U, 0xcdcbfd1b14cc03b1U,
  0x1fcbf5f9d7b71238U, 0x200781caa94c4128U, 0xd27000addf9faedU, 0xcd1c2432041df705U,
  0x622108a647164a60U, 0xb5d510b4438f904U, 0xeeda280cd027cbabU, 0xc10ce423492f33eeU,
  0x1fa23ae0f324babbU, 0xc1d2f966c4e5b7efU, 0xade39dd15b963dbaU, 0xd2ee072c3c5ee22aU,
  0xd2c5f0d4720c310U, 0x3e14c249d7550816U, 0xfa3f2f3c8a428149U, 0x61e65184ce0cd7fcU,
  0x47e3fd1204bc40f3U, 0x514fdbfb26b1330aU, 0x5349bdc215e4e737U, 0x4a31df0fda0721d4U,
  0xadc4d71e4b18b41cU, 0x6e579a2febe4b2daU, 0xc3ef4931bcdbcc2fU, 0x68dfdb0828cde6eaU,
  0xbfb012dc2b5120cU, 0xd8cbe3d4173c81bfU, 0xf3f61cced0f52dcaU, 0xe705a7b3f9263fe2U,
  0xceccdcc048e60f34U, 0xde0ed71bf7a3eadfU, 0x4b885ce9dcad1f6U, 0xf4efecd5af2fadf3U,
  0x33d13015640d2102U, 0x62e4a1f53e3a16b6U, 0xf8fcb4facabfe51eU, 0xd7f7c7d4e33f1fa4U,
  0x9a0b1dfe00f6eef1U, 0xda15e5d19c23bf41U, 0xd1f5ff2b272d19eaU, 0x7a143bc40deedfa6U,
  0xfbfe0b32b9ffd2f2U, 0x219718ec11edbe3dU, 0x3fc6000ad2cb11ffU, 0xc935d5c2daa4cfcbU,
  0xfd37f643d68e60c7U, 0x3c3cd93a10d11e0fU, 0x340f9fb0af259f7U, 0xe9c9e338165519fcU,
  0xfbcb1cb47fea5ccaU, 0x665e0310db5124c6U, 0x4c1bb608fc2ef7b9U, 0xedf42d1a2133109U,
  0xad1b1efb2f3effedU, 0xa1e03077ae27d230U, 0x71bd4ed32b035a3U, 0x4119ecf2293a2e8cU,
  0x4249ec0cbe06d3c2U, 0x7680640cfed2117U, 0x4e6b18d8a514cfd3U, 0xadecf4f9cfc935deU,
  0x2501f4e125d33aacU, 0xf243041b82c0a162U, 0x2e7ff0530120dc0dU, 0xe7b609eec6f4c53fU,
  0x2e1c17bff3eadaf6U, 0xdd402ac68b32c402U, 0xf71e57d6dc2106eeU, 0x490550443314382dU,
  0x1bfefcd6d911e250U, 0xcb1a48d525562d3bU, 0x6e04d063e9f2eaceU, 0x11b3c8eb2a2b1019U,
  0x1b0cbaa323eebac4U, 0xe7ecf44eded236b2U, 0xb2ddebf6fafee8c8U, 0x22b9d2f7d4bbc017U,
  0x11bdc7bfd90d38f8U, 0xfb737f6710abd949U, 0x1c3120edf6b2c0eaU, 0xd7e40fecbd45ade5U,
  0xead804bd4a3c19e9U, 0x6a333615fe60eccaU, 0x827f808c2b92804U, 0x2901f8e6d613aa59U,
  0xd05290fefeb42ef8U, 0x962d38d941ee0529U, 0x6c9f1cbc4a6feedU, 0xee7f42e416e52defU,
  0x29f30620dd6b1807U, 0x5233d1efa8841853U, 0x29421b000b693f1dU, 0xd1263aa4155842dfU,
  0xf5facae1afc03e3dU, 0xfcba45deb318f1d4U, 0xf6281440f123f90fU, 0x4a15a1e6ab1ddafdU,
  0x37210259b5d6febbU, 0xa60ccce4bd47dd16U, 0x284b252dc94e2ff9U, 0x19e55908f42e0bb2U,
  0x35b9bf2f1f7c538U, 0x3cee11ddc51338b4U, 0xe044cfdc41d3a1e8U, 0x1ffdf4b9efbe5a81U,
  0xb5a1bb27593b3fabU, 0x2c0f643de5dcacc6U, 0xed3232f6b6bbd525U, 0x2af2f4113dd3e34fU,
  0xdee54e0b4a0507fbU, 0x1a1cdf73f60a42f9U, 0xf2eb423b233c2fc0U, 0xa6c5ffb9efddb7deU,
  0x47335014d06869f4U, 0x13331f4792e0c7f6U, 0xc7ebf3baee311ab3U, 0xbf2ff1ffe71efddbU,
  0xbb1efe083cb1a600U, 0xc9a01b8e3430c536U, 0x4d456df00c4e72dU, 0xe1362d1d06eb1dd2U,
  0xbedc4722f1f9e6ccU, 0xfb01420805cec218U, 0x8be0e00f26c1f25U, 0xf51f1f05f52e4ec9U,
  0xc2a4c5def4f1e0ddU, 0x20f7c9b0ddd3d609U, 0x863df533fe0b06c3U, 0xfcbf03ee4c5a922U,
  0xa4dba12a28c314baU, 0xc20dcdfa5ebdf9baU, 0xf6defdade3ddd84bU, 0xab09f6ef55f5ea2cU,
  0x1cf1e69dc23e02baU, 0xf8e2d2c61afa0781U, 0x2a3adc6502173617U, 0xc7fe0208e5f8d804U,
  0x7dbf839ba020633U, 0xee1f30015b1c9d7U, 0xfb1f2dec2ee6cfeeU, 0xc2d8d1f8dde7b239U,
  0xed2d1eb70f3eef51U, 0xcfbaeec2697fce31U, 0x1a3038ec2b0cbde4U, 0x15d8e4fbc9cf200eU,
  0xffcd11e0c0de372bU, 0xa8d5d0c5c59f04aeU, 0x50d02742111ded15U, 0xede349aa4992bfd1U,
  0x150c372f56edebedU, 0x750c11ffa9d8d92bU, 0x44ce5cee11921d3U, 0xbdbec9e6a8da5d48U,
  0xbc625aae132f5U, 0x1d4ee52cd481213cU, 0xf0cef4b2080c2d1aU, 0xc9ece20998dd1dfaU,
  0xa80ebad5bef91b4bU, 0x1bf34a262a2e5cf2U, 0x3dcfefbdac4b716U, 0x1925e4fedcc60b05U,
  0xc8bcfa0be7f1190bU, 0x25e1d20ba70ae718U, 0xefa2b32d3a43023fU, 0xebc42deade6d0baU,
  0x10b8f5f401ef4b55U, 0x411cf4282d284bdeU, 0x25dcc514fbd2ebd6U, 0x1c3bcf0531e0d1ddU,
  0xc2de2ef7c6262beeU, 0xd732fbeaf457f4dcU, 0x291fcfe99d3cebd4U, 0xb141424c43e92c99U,
  0xf70e68f3fafe1ee5U, 0xf5e239cce1dc0cd6U, 0xb8330502e83f42f6U, 0xcf5951bd904dff2U,
  0xbd421b40e16d2afU, 0x21ab48f38101bb18U, 0xb210161ac0ff3152U, 0x5c86b4765bbdf05U,
  0xc3bf29a83f2c45bcU, 0x15f6fcc11d0d14ebU, 0xd3b74236f73f42c2U, 0x21e2bb8cd77df239U,
  0xfd3639394441ddc7U, 0x9ed4055228c67ae9U, 0xc2edaffc07ca55f2U, 0xf75bea7415c8f7f5U,
  0x21d11af313ce383fU, 0xe5086981a109f6d4U, 0x1d2a9f5229dd38c7U, 0xe82fdddec8c5a1e1U,
  0xeb29f7492952eb14U, 0xe4312e34ebd443f7U, 0xcba7e0e5eb30135aU, 0x31461a0f255366eeU,
  0xa05217e917174ab6U, 0x4415056857b255f2U, 0x23133e0127d5afcbU, 0x7869d5cfabcae105U,
  0xccbf2cf9d1d236ddU, 0x2b24c8b40f3beda0U, 0xc12d50edc3dcfc5aU, 0xb110b41a21a7135dU,
  0x5521c981e1005fa8U, 0x19b5d1732cfd1dd5U, 0xcbb6f3f25a000418U, 0x3004c54206d6c0U,
  0xc9740df838663c67U, 0x58f8ea0dd6272a4fU, 0x161ee3c8363ed93aU, 0x15e86fc5263701e5U,
  0x3b34b2d1b45737f1U, 0xb72dd455e565f63bU, 0x19e7086c0cfe3706U, 0x397f03532b54381dU,
  0xf93200bdf3cb0641U, 0xfbcd29ebbec9ec35U, 0xf7e2d2320a3de90fU, 0xaf267d00ffec2307U,
  0x1bd6570c25455dc0U, 0x19a72724d2fecfd8U, 0xebc8d0e7e9f2f529U, 0xfff3aaf4d0071655U,
  0x1499480634fbfd25U, 0xced3c527a226e4bbU, 0x27120e66fbddd612U, 0xe1d21be6562534cbU,
  0xffff0d7d7adb1b6U, 0xc9f605c02fe9faf1U, 0x29b5ab3aeeb341e8U, 0xea33e3695043eabdU,
  0xe579bcd60d9ad025U, 0xb2382ec6c41dd45eU, 0xea659e08b05f6e40U, 0x14d64c9156e1aff5U,
  0xec4811f2d9d7e88bU, 0x11d708beb33b495eU, 0x14855cb336d333dU, 0xfac75db9d9cba5ffU,
  0xeb30e51536c7f881U, 0x1a5ab0e3b316e44cU, 0xe624461cbeba11d3U, 0x40be35264ff6e6edU,
  0xe745f1e7f0dcd2e4U, 0x252a2e28cc0fd137U, 0xf90b320242fc170eU, 0x3ee907f441195cc0U,
  0x2855d33c4eae0c01U, 0xb46f4ad63ad411e7U, 0x49f1a315480988f5U, 0x385137a844c34a12U,
  0x26e7bbe0fad90f3dU, 0xea49e2f61b3ffae0U, 0xdeded9d53336ecbaU, 0x304216efbad9282bU,
  0x4ceb0f383513292fU, 0xcf42ea1adb7f0dc5U, 0x11d60da928a025c6U, 0xe9f2cf32ef0d3212U,
  0x461f3c246be6cb05U, 0xa10cf53ee927bf5bU, 0x3729dd0b0c3b4121U, 0xb73e1bdcd7fce73aU,
  0xc5bad5a0115c9658U, 0xbd6211f91ecec461U, 0xfdfeaa14cfd3ec34U, 0xbca827ad0a24271fU,
  0xead3ef18febfadebU, 0xbf1bce1cfdf2c822U, 0x2f1efb23c2bd11b5U, 0xfd1a021011a10cfbU,
  0x24f68828ebb6ff0dU, 0x21031c372c825fcfU, 0xe1ed14e930fa1c2dU, 0xaa3f12d76b500eeU,
  0xf533cdf5fdb51581U, 0x1df6e0eb0eed07eaU, 0xe02ae5d51ebdd9f4U, 0xb8d2c504e4e9fcb2U,
  0x140f40c9c41e2d1aU, 0xd2bd0efbbc00d0ceU, 0xc3dfb1acc15c6e9U, 0x5ab044bdcaf33edU,
  0x2f40fe04d3f0a513U, 0x3222d6da28d6f5f2U, 0xf55348f1430c32fdU, 0x42ce61f05261af4U,
  0x323afd261318c8f3U, 0xb0c1d1229d3d939U, 0x1a14d311002eef01U, 0xb31ad24eedf3ac9U,
  0x2c03d92007bef8f2U, 0xc41b10f57fe51437U, 0xd1112917d0f8092fU, 0x28ff0c3dda13fefaU,
  0x32baba24262701e3U, 0xfef9eec9b63701b3U, 0x2d492232d2fce8c7U, 0xe412c74014d12b2eU,
  0xc80b2ad9479b4142U, 0x401f33eecf27d530U, 0xc55000ec07f3f3ddU, 0xc406e4eaf20a0f44U,
  0xc81111210b09c84fU, 0x40bece0ffdec9f9U, 0xf04623c40904c7e1U, 0x2a0128c70bf9f824U,
  0xe80c420a22c3ef7fU, 0xd103031f0cd71cf3U, 0x21bdd0bc3b98205dU, 0xdbf94933ec242634U,
  0xc526a806d7371746U, 0x22f3140a4b2c3c2dU, 0x221332113ac463dbU, 0x1c3fd8df42dd0ac0U,
  0x29fb43c169f3cafcU, 0x4fd898ffee9713ddU, 0xe14f0346a15be5eeU, 0xa43f1549e3009e1bU,
  0xeb154c020a280846U, 0xecd60d14a19060afU, 0xdcb51127a4c0b981U, 0xde1a9580af7d90eU,
  0xeaeb3fb8c759ad21U, 0x212f0f2acb37a488U, 0xc7ae4d30606cb27U, 0x32d5c795de1cfa01U,
  0x3981484a07e4f33bU, 0x128bc4b615501659U, 0xbdecdf06861c82cU, 0x4850a59a129f2c12U,
  0x54f490a6d529c797U, 0xd8671c2b4e3aea0aU, 0x49b06e01ad35c9f4U, 0xdfdd4afd19bd4906U,
  0xbb40aef3be8c01bU, 0xf79efef8d0f804aeU, 0xe4a81ee462395dfeU, 0x1f288e0c41dbd323U,
  0x443537e3dcc73229U, 0x2e1af30c2dd92e18U, 0xcd4c2b130d1b3de6U, 0x6d40e827ebf5d8c3U,
  0xb9c9c0aea1fcf631U, 0x1aba5bf5c630c953U, 0xf261f27245041bcaU, 0x44fd5156144fe5b8U,
  0x4fa2f43d89e372bcU, 0xb1105a4e38f2dd19U, 0xab5c7e22112e1d9U, 0x1ff44e326520e22aU,
  0x3ab0b225ad39ea37U, 0x51faab00c5e924f3U, 0x180ab0f59b1ba539U, 0x6119527ffc3ac0c6U,
  0x25d05f2551f9182dU, 0xcf3739db20e0d602U, 0xf2b5a20df8ec9d06U, 0xca4b2ecce24d31edU,
  0xd8d5ffc011eb030aU, 0x1e2946dd074d21edU, 0xe7332c1121d9244aU, 0x90d73b1d12d53c46U,
  0x57bbf3f1150d6db3U, 0x610dab09f3e924f6U, 0xa220d1f87ffde7e6U, 0x351b4f4d065ffe6aU,
  0x1e5e3f2e2da7292eU, 0xb0bdd1f20037dd74U, 0x26c61000aee48c2cU, 0x35f443e6c41cf6faU,
  0x4156d40cba1430e1U, 0x2c38af1022d11290U, 0x282728052336eff7U, 0xf83cef2f4cdf2ea7U,
  0x194c0f242e6010c4U, 0x31f2dbd6c8e9caa1U, 0xf9cdb451c02ceae6U, 0x997f2af0fad30816U,
  0x66f746e9d83d170bU, 0x8ea212713e2a44cU, 0x25fa01075438fa47U, 0xe1170d1cfd0e29fdU,
  0xedb15b30cbcff025U, 0x25ddf8fb9a03f507U, 0xc5c45042f24f1f7U, 0xc7164168f0153ce6U,
  0xd3101f4213a21140U, 0x5decfed2f02f260U, 0x3719450c28330992U, 0x55ea6ce7451f220fU,
  0xb736084c0a0659d1U, 0x81ff27f3f3036d0dU, 0x51d626d0c3c4c80aU, 0xe7c6f62ce4c34019U,
  0x104910d46ec659e2U, 0x450d16fc02f5fa05U, 0x48ad243724f03c0cU, 0x45220fdde2f10814U,
  0x401ce8c21ff6f709U, 0xeac44007f702b1d5U, 0xfd42f8afb60ec411U, 0x4b270b070f19fb1cU,
  0x28f02ad067e5dbe6U, 0xdeccd3c1935c121U, 0x34ed993942d6e621U, 0x3e5f094c45cd1037U,
  0xfc73fdd0e7c4364dU, 0x4cfd2f2fd22b043cU, 0x1f59a820455c04fcU, 0xd4c55ae12c3724b0U,
  0xd0e7d763ff21e435U, 0x1ab714b9087bf631U, 0x5e1dbfeaee1fff19U, 0x18c729f619b5c71fU,
  0x10eb2b05c0e58dc5U, 0xd0c35f4dd56dd2c6U, 0x61b028c0b4efbc43U, 0x293ce00ec9fc254U,
  0xb564b56d1ff2650U, 0x6cf40455eb97fb8U, 0x4a64d6f226562123U, 0x3fbe9dce22b047d7U,
  0x14d03705293332eeU, 0x1bede4f1b7f41540U, 0x29de2b31c931cdc8U, 0x460e12fb3b4c35ccU,
  0xba7fedcac9e8e81aU, 0x82a5e13548ee1023U, 0x5db1292e31289fe6U, 0x25292a841120d42dU,
  0x5303ce0cffde9a3fU, 0xdfd0cd09d7c901efU, 0x46b2121fa251dc35U, 0x3334a5dfd9f4b0d4U,
  0xf7ec2df6f7f3bdcdU, 0xf70b06c5ae0fc721U, 0xe50814cdd02dbdb2U, 0xb5a814d5d907253aU,
  0xedc13111570605e3U, 0xc22a2ab5fd66fd66U, 0xe722383ab536ca98U, 0x35b0e07f1e9d2eefU,
  0x4ed151461db51a60U, 0x21eabf11b6c74d42U, 0xcb0dd9fb4d6f13f8U, 0xd6ec612c9cfb2de9U,
  0xfff71202b310c053U, 0xf400dffe40df6533U, 0x3c0b15933b449d4eU, 0x237a21a5ed3c9caU,
  0xe00168d3f2f6d911U, 0x12eb5cb5630d35d8U, 0x221419e31bdbc1c0U, 0xdcbf23fa42fd2c2eU,
  0xc1c0472d1caed6c0U, 0xfae3b42141cdbed9U, 0xcbaf880839e3e4ccU, 0x13cc329dc9031013U,
  0x3c66fcfada271de8U, 0xdcc942c3031ad4c9U, 0xedb0e6b301bad003U, 0x1ce33de707111dU,
  0x7c316d61f3ce446U, 0xff3812ebd4b13530U, 0x140d13810ee6d2e5U, 0xc13d843c50de1f6U,
  0x230ef9d612dbfff7U, 0xbad10430fd3ce3d1U, 0x2025f7c7091be2d6U, 0x2506db2ada22f416U,
  0x1013e6bb09ed1ef2U, 0xfcf721f4be97171fU, 0x18073e0207f822e0U, 0x11e404fa050e0bf0U,
  0xf515b4e7c02b30dfU, 0xdbd0e40d05fc1f12U, 0x170a1f17461fbe39U, 0x48bf27ddf6aed421U,
  0x111cc0d519d114U, 0xcdc17f2dec9e513U, 0x2934f57fe5dad6d2U, 0x4c3fc0911f5e424U,
  0x53ac4d1e8dee5faU, 0x9da1a18f4c20ef5U, 0x55d3ee04ec05c157U, 0xe2be3c4b2a99e5d8U,
  0x1d1259e43bc23b4cU, 0xbf3d0c5aaffddd5U, 0x7c065b30e1ee50deU, 0xaa181133e8efd188U,
  0x6eff9ce123de1e97U, 0xcd5c22446e80891U, 0x37d0f7dfdb0feb3eU, 0x1565d028270d71daU,
  0xfb3579960a31250bU, 0x34efedc9b77609d0U, 0xe55b3ff13cefd65aU, 0xd517473ebfed0e47U,
  0xbe0f5bab56d1907fU, 0xa0340ff2bc0c27dcU, 0xd702bea5fe0926e1U, 0xcb2aecd1133e0919U,
  0x1b0ddff4bef3d852U, 0x3acce2f1db382be8U, 0xf7daceaa2327dd16U, 0xebcc1c94b9dfde41U,
  0x4e8bdc80bc6e630U, 0x14f028b440512ffeU, 0xf7e70fc0daf0a72dU, 0xdf4e6ee03c42f2b9U,
  0x16de3bca2b46feafU, 0xaed820e47f140df6U, 0xd5f93af6ae18f5fbU, 0xb7c639b8b6cbca08U,
  0xceb62a5edbc928d8U, 0x1ab3fdeaeed1dd0cU, 0xde32c7f8306938f9U, 0xe957ed3114e72736U,
  0xa4081215082b2e01U, 0xd23d00f554c2ac21U, 0xbf4c90ff06e3e6eaU, 0x8bc7f4d533766c5U,
  0x13af51f7faaac6b1U, 0x1503dd299df10bccU, 0xf8f3ff1b3b965ed1U, 0x18efe1044422f6c1U,
  0xe71d20174f4523e0U, 0xb1caf969ff43f7eeU, 0x1ddaf2c731f0d419U, 0x43f2d00734aca45cU,
  0x2f4a2230e39d048dU, 0xbbc1a916fc6c5fe9U, 0x39cfc90babfbb1f4U, 0x1f90ab51ae322e0U,
  0xd8ecbad3af23e43fU, 0xc5e40633fc46f1d3U, 0x585d12e725b0edd0U, 0x32fecad4ffb921deU,
  0x839e6f6f066de3aU, 0x9b0cc15b1dece10aU, 0xb0ed4a2dc57f4697U, 0x9a51f31efa0b21f2U,
  0x1a0c2ed2c5124966U, 0x2dd41fea0c9fd713U, 0x2af4dbda4cc911fcU, 0x46c8d1e8fefadb0bU,
  0xe7a5127ad1bd3f08U, 0x99005207a006274aU, 0xee0d6fbd4563b1fU, 0x4351b9d3eddf13f4U,
  0xe63ac29a2725bf05U, 0x49d0e618d5a739a9U, 0xfedbd3c77be9d830U, 0x3eadf42c4daeee26U,
  0xcd37e6083347989fU, 0xf94a2f0afdd53f6aU, 0x3846550c2179d0aeU, 0xe5b922dff10fbf4aU,
  0x33f3ed34e03ad348U, 0x580cdd570d370db8U, 0xa50fd4eb15c7c28fU, 0x1adb2f03f68981e0U,
  0x29f9df00ee1d26d6U, 0x1e60cb4756cdd1ebU, 0x382219b95b96b549U, 0x4237216534f4a7e2U,
  0xbd57561012e6a334U, 0x24d12eefe3d8105aU, 0x1419060e53304e50U, 0xa9f5f82d421b6304U,
  0xfcf05f1805ff01dcU, 0xc4dbd6a9e7f5c551U, 0xf18d5414ef16808U, 0x4eef4b474bd4d56cU,
  0x3d151d28c7ed27b5U, 0xb1f04008810b444bU, 0xc82d630beba00445U, 0x3e0b37ef5c2cf71eU,
  0x313b84030e4313fU, 0x3e4241b961d366d1U, 0xc8dc36311bb815b7U, 0x312525a8b0aa16ecU,
  0xb259023dc83b93U, 0xff44bda045d8f181U, 0xd0f8cd14194231dbU, 0xf64b196352db1e20U,
  0xc82ae409ab136cc7U, 0x71d94cb6f8f7f435U, 0x9307aabbd7cef6dbU, 0x2e17f7abc720b6e8U,
  0xdfbcdee41d9e2712U, 0x3f2bd1c90f01210fU, 0xf418fbff063a4061U, 0x3bb9df4cc9b6f136U,
  0x15a99b99ddb461c5U, 0xcef80fa8241acf1eU, 0x29003a2f354d09edU, 0x54b307fbed31e9d0U,
  0xb93527158836c6U, 0xbeef092d12ec54d8U, 0xdbb5222abe11d311U, 0xef458c5be210122cU,
  0xc21feacd4dad17c4U, 0x3063df349041cacU, 0xfc11e307e81326e0U, 0x12fb820fc950afdeU,
  0x39bab5e9eb67e5e1U, 0x1d17fef12e2bf1b6U, 0xacd9c67fc2ed462dU, 0x2405ade7251ebe13U,
  0x20c8b02bfa210dacU, 0xd6e83422aa5dc610U, 0x7df289bdf1ab045U, 0x3f39f146c8e8ee27U,
  0x28cd4230003fa15aU, 0xee1835df30895628U, 0x1d14fafd16e0d4c6U, 0xe4975f2f10cceeceU,
  0xbc0fcefc08bdfb06U, 0xf739facae6e60cb4U, 0xd6f0414f45f13bf2U, 0xfe1a1d15d1d22ed6U,
  0x159ef4eb9db20433U, 0x8828639ee6237c01U, 0xd7c917f01a60b81cU, 0x36e65afa7f09be0aU,
  0x2ffd30fab7104002U, 0x5ef6c95202f4354eU, 0x49eb29512217ec49U, 0xd522f52cde27052cU,
  0xaff3d51256d0fab6U, 0xb2f1fe10d00b6e12U, 0x5fe900d00da7ecdfU, 0xf02ce872af08dcf7U,
  0xd5b9815038d1cb37U, 0xcf2c154860580acdU, 0xacfef72eec4d0020U, 0xb9eea4972bde4bf8U,
  0xeb3b01c8ffdb6a01U, 0xebc0f816cfe3dfebU, 0xa846d25bbc356628U, 0x68261515cc2b1245U,
  0x6e24d1d5afc2e550U, 0x66e611d84efcdc0dU, 0x463d15ce0118b7adU, 0xf1e193b22671c822U,
  0x45a71313c7ddc4b6U, 0xbd00b44c060728f8U, 0xa6ddef1550ba05beU, 0x1ae5300e5b60451cU,
  0x4cb9adf1b02bdcf1U, 0xe353da2ad616ce0eU, 0x10bf9e19edf0aa44U, 0xa00f21abc8fec0f1U,
  0x225f4415c8f5daf3U, 0x2953e44a1f507f30U, 0xe51de7c8dd2beedfU, 0x16ff352be92a243aU,
  0x322ebb3db502ce1fU, 0xa8030c31f9c5c7ebU, 0xd324c02e332e1900U, 0xc997f696d3dc0314U,
  0xdc37ace2fcdbeb1eU, 0x170241d1210ac330U, 0x81bdf50ce9e0e3c0U, 0xd7dfab22eab5103bU,
  0x750df45f7c4a8e6U, 0x3e0a2a1c34126da8U, 0xeb43ffc1e43b13U, 0xf8331ecb05ff1de3U,
  0xdd78fe4b8d0fae7U, 0xe4d3d71523bbfc17U, 0xe7ede1e92500b67bU, 0xd537f016f8070f2aU,
  0xfc22316e63f1f2aU, 0xefc6da18b3cae1e3U, 0xf4cde6d0444224beU, 0xc302ef61c03be2d4U,
  0x6f2c32486906abd0U, 0x2c53d41e3c1f4ef5U, 0x442d5f40b534ececU, 0x6ccb0838ded914e4U,
  0x4ddeecec4405868U, 0xb8c88d1a2e525634U, 0xe6fa521c27bac8c6U, 0x21f3d847fe2d2824U,
  0x43fd7e1f3a32dd17U, 0xa0a962eff300f3c4U, 0x6b5ada15f9c4cea5U, 0x13fd81e7a4287593U,
  0xbbc5e6423bf6d642U, 0x92c0c30b3858b69bU, 0xeb5a25f5ae281cb4U, 0xb902e0e0abc2023bU,
  0x4de64716ebafebcbU, 0xb5c65826d7e1047dU, 0x35ce33fa0d11233dU, 0x47fc63120334b20eU,
  0xa3021a4afd843a1dU, 0x1d4994322011e417U, 0xdf0d0a13004d2b1aU, 0xbbd82fceefd2f3a5U,
  0xfcf4a5f0af3af9deU, 0xba09308113aca50aU, 0xef2b70439fed54fU, 0xe31792ca215bc818U,
  0x5c52fe2d2af703e3U, 0x5a2918e4d0262bebU, 0x29e6d0dd21df07d9U, 0x30efe81c08e5cecaU,
  0xe7594e12fc0501abU, 0xc9b1f118d02a1ed7U, 0xe3fcba22bc60cefbU, 0x5516c5d3d3bcd7a9U,
  0xb8e8d32d40e02f6dU, 0x24013cc9c4db1ec9U, 0xfc371ba0b3d405f5U, 0x1c09cbd003e2cae5U,
  0xddf8e0eab6de33fbU, 0xeb2042c17fc845edU, 0xe30d11a7ecfe0ad8U, 0xf30a03c8cdff171aU,
  0xe807fed13eeb46cdU, 0xf8a133d228ed13b8U, 0x14e83027d305ebd8U, 0x46923fbbd08d304U,
  0xed42d7962d30a839U, 0xe5db375b0c9d4f4cU, 0x161618e350d5f6c7U, 0xb4b349c9c0e4222bU,
  0xf139f1c2fb5e1c2fU, 0xaa16cec19a02241aU, 0x3f34d303e0d53a42U, 0xea07a1ffb047cc5eU,
  0x334902dd91be8ff7U, 0x9b02074c6420cf23U, 0x6e50181c4b816c2U, 0x4352c40acdbe815U,
  0xcbcdb36b0a3644d9U, 0xf73e39f4f00efc2fU, 0x56dc3499e11d0633U, 0x2f2cd0040a0e0bc3U,
  0xef15e4fb17bc3a23U, 0x138bbc44f527dedfU, 0xb10b118cd9e8e052U, 0xdee137b400d78bdaU,
  0xa9bb13be222f0f08U, 0x2941364655e21a04U, 0x39114c0a4655c55aU, 0xcf0842471dbb2598U,
  0xa541d2eb0346a20dU, 0xec5dddd4ebfa3110U, 0xd0f49552b9fffc22U, 0x140621d1d365d14bU,
  0x123d7ffeafca25d0U, 0xd4ab0d57ef0ffce6U, 0x6f02ec22fc0b724U, 0x54e56ab2666971dU,
  0x3d59251c14c6e21eU, 0x3c453da0962fd911U, 0xadc1464f5acd3b7U, 0xf798d34839d8ad05U,
  0xfbec5514952667baU, 0x32b1de5160e5903U, 0x9a1757ff632fc4d6U, 0x9434caab2ec44033U,
  0xc6fdaf124a60537U, 0x3ae435a104f649e8U, 0xb4571d67ca16c711U, 0xfac97f311e2f1c49U,
  0x1c585bebf355df97U, 0x2e0336d6f24948faU, 0x7dcd6c4f0f504f2U, 0xf50bcdfd183ecf3bU,
  0xd7f09af23e1e11dU, 0xc6f31020f9273d22U, 0xc88bd627dae10bfaU, 0xcf0ea2c8bca6a328U,
  0xdbfd272c2105adb0U, 0xd9eae41cfcf7e2bbU, 0x201612e6c9190118U, 0xc5aef302ec07054eU,
  0x351feecfbbfe903U, 0x7fd2d5458d150f2U, 0x1f12b109051920bfU, 0xeae4eda2931b4706U,
  0x90d091dcb283cb1U, 0xbc10cd592cc7e4ffU, 0xe57f0dfe24e01cdaU, 0x2e8f11c8f3a7e53fU,
  0x932efb252e0072eU, 0xf5d7c4f1f4e01729U, 0xbbdde3ff252b22feU, 0x10c91fdadbd8ebc0U,
  0x23f2dbd02ab9f4efU, 0x1f34e4aae926cedfU, 0xfdb9e2c93e30c831U, 0x3b4834dce0d60a28U,
  0x96dacc37491d0826U, 0xaa11460b06b928e3U, 0xf0b648e51a06d33cU, 0xc00d363727f5cdc8U,
  0xcd1d6ec17c33becU, 0xede22cf5a445de28U, 0xf12807e451fbde04U, 0x341fbde3bc2eeb1bU,
  0xfd0621f7063ba5fdU, 0x31ff36cc0a2ba1deU, 0xb11d0ff6effa07d5U, 0xc31c21d8ef4fed00U,
  0x25bdd20522244631U, 0xc8a8c7f34bd2e413U, 0xff02e2a5e2f130eU, 0xc519f2e82703b913U,
  0xf9097f0e2cd6c220U, 0xc5ba03f3b20ce205U, 0x340b33f6051a122bU, 0x4172de811d4f2edU,
  0x33e0c43a28eceaaeU, 0xcb0bd02d0d0ff8ddU, 0x580ee0c5efcaebb9U, 0xc21d08b2b061cbe8U,
  0x54324fdb3232d927U, 0xf2de1798fde24d39U, 0xe737c3e52e1de213U, 0x93caee913b32c4f5U,
  0x16491dbcce543f2eU, 0xacc9c1591b1ff3e2U, 0x23e67fed192bcc16U, 0xa8a647fc3b4511f4U,
  0x21232511d1cd960bU, 0xa949c9075fa2e2e1U, 0x4dc8f5acb841beb8U, 0x4e8ac7001c02c4caU,
  0x7624b41c0ef5bd04U, 0x71e1054b06af1a24U, 0xdd0331f2f8081becU, 0x4524573d28d9d8b0U,
  0x18b51347e82f4ddeU, 0x39ff1ecfcdb6c745U, 0xda533ff61f180cdcU, 0xed6c3411272b1ccfU,
  0x22d244bcf613ebe8U, 0x10d7e3a8ecd911b3U, 0xc81ee6ded1f9eb12U, 0x15c5b8ddc2c5f9d6U,
  0x29c2d9de23324e41U, 0x1413dbed1e29fee5U, 0x1745341e3ff63422U, 0x12439c1d0ebd317U,
  0x8819eb812729ecf4U, 0x11101f493952e8e4U, 0xcc9902ea502b3107U, 0xd6feee34d0e3c354U,
  0xeab8dab4db7fd9b2U, 0x100fd1ee920db55U, 0xb93bcbc2f1294ff4U, 0x240317f1a62c068aU,
  0xcdb630e11ddbbdcfU, 0x2929e2ee2413ec07U, 0x19151bee10f5ec24U, 0xd3a0b3bb2d322bd8U,
  0x44ccb4c2c19f5f0U, 0x3af92de1e396f0c1U, 0xd3b0dc274bc6f411U, 0xbdd422425a23e138U,
  0x412d7e5a3fd528bU, 0x42b64feee1181ca7U, 0x234cff0ad961b9b2U, 0xf2dcb51726e919e8U,
  0x41c5010941062059U, 0xdc04eda75f3646d9U, 0x1048fa15d3cf109cU, 0xe31dca0aff4b1160U,
  0x4ac7f7e90ef6cdf1U, 0xa9c24814c15de2dU, 0x14caf4ddd22510c6U, 0x2edf18734310ee26U,
  0x4928f5dc28d94811U, 0xf4e7c71e3543dcf5U, 0x2e1fc3cd1ea42d5U, 0xdc282d15c210eff7U,
  0x2e22512441b4b0dU, 0xc80bae1ca13aac2eU, 0x3cbbfabfeb0ae10fU, 0xd6f7f878ba38ef40U,
  0x813517d743131edaU, 0x4a3de0d495d83a24U, 0x2456b45532b60d89U, 0x19adcc4e42d7b618U,
  0x451ff9cf1cbcf7b4U, 0xce23dcd651ffedf3U, 0xf1d3e7740acde1abU, 0x6d69da6bdc8bd57U,
  0x46bcb7131eeab55aU, 0xe4bfbbd0a1c7df36U, 0xf7bbf511b80bdda5U, 0x13faba33e3febbe9U,
  0x55c6fd87e0bcf647U, 0x7721663b2cb17655U, 0x4a68ac8c1c1c8c0U, 0xc9c488139dd4f30U,
  0x26044cdf041e668U, 0x2db0f853432209edU, 0xc92f33059163349U, 0x87e3d742aa13c3daU,
  0xac11aedc557d61fU, 0xb2dbb3ff21fec832U, 0xfaf8b9fcae2414d8U, 0xe1be0f2c20d6ad16U,
  0xea311e0ee296ec3eU, 0xd549d0083ff062c4U, 0x25fd23b3cd0bb705U, 0xf94bb900801da4dU,
  0xa1caeb133c4ed31cU, 0xc3cb4beebfb80ff7U, 0x3eed32a9b040280eU, 0x619c9bc2b208f04bU,
  0x8bc4e41a1efa42c1U, 0x6b9cdb6f11f35db2U, 0xf045e7b736b6c54cU, 0xf1f9b265f61ecadaU,
  0xe232cbe00bec40faU, 0xa0df39382bdb57caU, 0xd0d9d244ebdd89ecU, 0xbfd26188d7fc9f4dU,
  0x1d2bdaf0363af0f0U, 0xad5ff9c51e147a59U, 0x644ee9ff00593ebcU, 0x7fb10a9c3829cdf6U,
  0xc92b026bdddff128U, 0xfd2abd583ceafcecU, 0xd9da1efebb0e31cdU, 0xfbc08518f7acdabcU,
  0x2fefb30058de25e7U, 0x8ce060850f1958aU, 0x60a45c0323f50d3cU, 0x7154981211a3abe9U,
  0xff21e75725f6bd0cU, 0xfd2dd7c6caa60436U, 0xdd964e26ef17d517U, 0xfdef4b2343a64cf5U,
  0xf4e9baebfb361542U, 0xe4c1e6a464abd9bdU, 0x81bd0f33e3fe089bU, 0x1d42b20dafb5d8abU,
  0xb8e011af0106c313U, 0xc4a555ae0731ca99U, 0x4c32f1021d19bc0U, 0x10ad56c0e923c8e6U,
  0xdb44f42d25d924d3U, 0x16d10d5c4ad11bb7U, 0x202e0c2c23c1b349U, 0xf040e50b94d037e6U,
  0x450bcf8f0c15e1d4U, 0xebcab4340a2fc081U, 0xc1c2c70cecff35c9U, 0x32c135f19a4e0e15U,
  0x174905efd2bdc52cU, 0xe501b108206d26f6U, 0x86482b8b1dd4b72cU, 0xf3ed8bbc03407eaU,
  0xd71c3dc45137eae9U, 0xd77259091805dcd8U, 0xf9c62adfb9dc1ee4U, 0xa0d7f80db60c2a33U,
  0x12e352d1fd34a828U, 0xe4e523ebff449bd3U, 0xd0b50c38ab0871dfU, 0x1ec9941aea81e709U,
  0xcfd147d629fc109U, 0xf3060610c2e719c4U, 0xfad24e1832fa1818U, 0xb41d013ca453732U,
  0x219adf41d9e33932U, 0xbff6caf463e034e2U, 0xe60c1e9632d3acf6U, 0xd9290455e1631621U,
  0x18c3f3a51c61f7dbU, 0x358fdcc0a5cdb5b1U, 0x9528270746f1f131U, 0x3f11d9c8c6cc1333U,
  0x6bb49cd3e01e3bfU, 0x2414ac1b00dea09dU, 0xd1abb3b9a7cc101fU, 0xd0f9c0c13e0cced0U,
  0xbee5e4e238cee35bU, 0x5533c03411c41fb6U, 0x4f1f3dc5c2190becU, 0x550736d96842e82eU,
  0xbed6d3e92c2fd81bU, 0xc4d2eadf2203b0e5U, 0x811ab7d44036e852U, 0xe4f8065943c10d4eU,
  0xfbfcf73d1a4c4d29U, 0xafaed0588d378b15U, 0xc5c5e1e436f7444bU, 0x1ec16ff3333baf6U,
  0xfc4c0fc40afb029eU, 0xd3a5c92f10cdc0e5U, 0xad91ebec0706e4d3U, 0xa4d494141107bce3U,
  0x2222bd21301b11c2U, 0xccf2cdbd13973d9aU, 0xaf81afff2b3f8ffaU, 0xe1d8152905531637U,
  0xea0c3be8c4df42e9U, 0xda29200973b7dd09U, 0x11ff04a80f01e0faU, 0xbdffac55a9053b09U,
  0xe0cde416ed121ad9U, 0xbbce33e7f90fe9a0U, 0x5ab0e0070daf1216U, 0x3c190b272c284251U,
  0x6827b03bf51029eaU, 0x2fede220f81f5044U, 0xed019fe63fd805f0U, 0xc10f56ae4fbb30e2U,
  0xa61c0dc5e7676ed1U, 0xf4dce433b115f7efU, 0xcbe0f6e53ebf113eU, 0xf01305091620cf23U,
  0xfdbf3cd3c1c9141cU, 0x4b471514057ffd5dU, 0x3063224b69de13a6U, 0x3bf91bef07160733U,
  0x3253232fbe904eeU, 0x14dcdf0627302e0cU, 0x4c293cd634f3d9d1U, 0x8eff44ba6263b18U,
  0xc02ff5d1e5cb143eU, 0xb9fd180324cfe42dU, 0xbce4514481c0c337U, 0x1f1005b823f022e7U,
  0x2003eb00c43c0061U, 0x2411f1b6bda4e915U, 0x1d4b49bcbc17cc35U, 0x415d5d15f8e4ce13U,
  0xd3f72d94a24505f6U, 0xde2b49399bf8fea4U, 0xe505eb4e951bae4eU, 0x4dbfb16a078e9ff5U,
  0x272226ccb8072d37U, 0x2fc90ec0ba39d600U, 0xecdf0ab5efb5cff1U, 0xa7f3c700b9d8ded3U,
  0x236b430cbfa22U, 0xdab33defb47fd3bcU, 0x39f628f2cbf64bf3U, 0xf5c3b8d4208c15ddU,
  0x201152292dffebe2U, 0xddf7e7d7bb91e6f2U, 0xc0b8be15dfc90fa4U, 0xf613ed1a1f11facdU,
  0xea10c3c759df1fddU, 0x2ffbb3283900cfe7U, 0xb6fdb610013bc3f7U, 0xf6d038bae9e9cfb5U,
  0xbfbefa27fd3841d5U, 0x1ab3efcdff339a0dU, 0x246d311a1013b85bU, 0xddf808fb1558ccf0U,
  0x1ef6a02cf1fb2c54U, 0xbdfde0fefa314233U, 0x843fe38fabf00ffU, 0x5a1b19f2d93ef1bfU,
  0x1b281240efe01c1aU, 0xc8efafaf2cc163f3U, 0xfa52fbbc53743e9U, 0x4ec5e24e4a5616d9U,
  0x7f4603e2fdaef803U, 0x2029c34b100f1be5U, 0x47bab7e5ecc4fde4U, 0xd3f040b446c2e650U,
  0x35ca55f73a3a389aU, 0x16c3f604c6ce313dU, 0xec9ca5fd39cb059eU, 0xe3a1e4093617ef2bU,
  0x11265c24f0055fc8U, 0x43ffeac09b220e06U, 0xd32515ef211ce915U, 0x64c5b8214cf1e3a8U,
  0x1c25cd38a634b226U, 0x3ec9f7bff7e21a35U, 0x5fd95431bb5e1ddeU, 0xe5e441fe42bea20U,
  0x48ccd80a1adabeeeU, 0xedf40001e8e6d8f2U, 0x204553c98ac0a243U, 0x7ca18320ad71d49U,
  0xecf353dbd063bfcdU, 0xe3ca7fceb217959fU, 0xafd1df6a00b0092bU, 0x30fd30bdbbd2d702U,
  0xc517fbb4013a651cU, 0x3fae18e3a5f2e8d5U, 0xe22022295a39062eU, 0xc901edc6e209bcdcU,
  0xeabe9f531807fab8U, 0xf8bea2f025b1cd1cU, 0x1af0954330811035U, 0x1c4ad813e402fadaU,
  0x174c90124ff1f0fU, 0x7b3b18f4050856c4U, 0x46c5e51a530c1d93U, 0xab244ab720102756U,
  0xb3379e370c0a0db7U, 0xcee8bb4a10b9eb05U, 0xddcd1fd460544af8U, 0x9072940e829f767U,
  0xe4462ee112e8ddb4U, 0xc74637d52b02c846U, 0x81401ff01625d4f5U, 0xdb02063213fbd8afU,
  0x13caccdb17c1040bU, 0xfb0d07da1d428f35U, 0xad15ae28cdd2f0bcU, 0x24d1af17dec9f7e8U,
  0x223602021edefd09U, 0xd20738e918c0f221U, 0x49d2283819fe1ae3U, 0xc2e5d6f16313fb13U,
  0xd6292fc0e3dcbea3U, 0x239f1de1c838e53cU, 0xeaf01fdfd9fdf340U, 0x282bd811abddf4baU,
  0xf802e2fe2141c5edU, 0xcc22303d0bbd7e8U, 0xfd001a0d4fb017b8U, 0x22c9f8f5fbff0f14U,
  0x19fd26acf6fe1c47U, 0xb71edb0cf816deefU, 0xbf733eb29c9c444U, 0x14c540fd31e2d522U,
  0x561a01100a11c8c0U, 0xc91c1418d8cbec06U, 0x26ebef45db5efe81U, 0xeaecef3cbdf8e918U,
  0xf5c6f26315f7ff06U, 0xf130110a18d0dc2cU, 0x2b31ccd722341ea5U, 0x460745e72f23b7d2U,
  0xd6382e1426252bc3U, 0xbfde2ebe10314c20U, 0x780c2fc6ff20c73cU, 0x39dab25de7aac83cU,
  0xce035454149d1e3bU, 0xba58de06cd00c1fbU, 0x8109325172833f4U, 0xb0c102f5f3bc33d0U,
  0x166e94c6fa8a23efU, 0xb6c0df050cf541e5U, 0xb05681d95e731cebU, 0xf0fe8c0b344853e6U,
  0xb3ccbaafee0b56b7U, 0x2a3040280c21e624U, 0x50bc0e6cef385a39U, 0x5006f747eec40710U,
  0x51c2360c4efabeeeU, 0xac2329f9281f4738U, 0x44d0c04ade27de3cU, 0xc221352813f7343bU,
  0x398a44bca34031afU, 0x244a0258c842ee1bU, 0xfd0cd9c00f050ae5U, 0xf05704d3e4d93446U,
  0xe10592415004b7e9U, 0xe6352008fbd238f1U, 0xbe6121d2b738f215U, 0xfbcdf9643e96b86bU,
  0xe329f6d932e45c06U, 0x9ceb7f0f0817cc50U, 0x16eee4d55c00f537U, 0xc2d832fdf2ca141eU,
  0xc2b2302830eb1ed0U, 0x47d8e6ee307ff4e3U, 0x9ef3bfb6d9091c3cU, 0x29210a4e0a4dc335U,
